{
  "version": "1.0",
  "truncation": null,
  "padding": null,
  "added_tokens": [
    {
      "id": 0,
      "content": "[PAD]",
      "single_word": false,
      "lstrip": false,
      "rstrip": false,
      "normalized": false,
      "special": true
    },
    {
      "id": 1,
      "content": "[UNK]",
      "single_word": false,
      "lstrip": false,
      "rstrip": false,
      "normalized": false,
      "special": true
    },
    {
      "id": 2,
      "content": "[CLS]",
      "single_word": false,
      "lstrip": false,
      "rstrip": false,
      "normalized": false,
      "special": true
    },
    {
      "id": 3,
      "content": "[SEP]",
      "single_word": false,
      "lstrip": false,
      "rstrip": false,
      "normalized": false,
      "special": true
    },
    {
      "id": 4,
      "content": "[MASK]",
      "single_word": false,
      "lstrip": false,
      "rstrip": false,
      "normalized": false,
      "special": true
    }
  ],
  "normalizer": null,
  "pre_tokenizer": {
    "type": "Whitespace"
  },
  "post_processor": null,
  "decoder": null,
  "model": {
    "type": "BPE",
    "dropout": null,
    "unk_token": "[UNK]",
    "continuing_subword_prefix": null,
    "end_of_word_suffix": null,
    "fuse_unk": false,
    "byte_fallback": false,
    "ignore_merges": false,
    "vocab": {
      "[PAD]": 0,
      "[UNK]": 1,
      "[CLS]": 2,
      "[SEP]": 3,
      "[MASK]": 4,
      "!": 5,
      "\"": 6,
      "#": 7,
      "$": 8,
      "%": 9,
      "&": 10,
      "'": 11,
      "(": 12,
      ")": 13,
      "*": 14,
      "+": 15,
      ",": 16,
      "-": 17,
      ".": 18,
      "/": 19,
      "0": 20,
      "1": 21,
      "2": 22,
      "3": 23,
      "4": 24,
      "5": 25,
      "6": 26,
      "7": 27,
      "8": 28,
      "9": 29,
      ":": 30,
      ";": 31,
      "<": 32,
      "=": 33,
      ">": 34,
      "?": 35,
      "@": 36,
      "A": 37,
      "B": 38,
      "C": 39,
      "D": 40,
      "E": 41,
      "F": 42,
      "G": 43,
      "H": 44,
      "I": 45,
      "J": 46,
      "K": 47,
      "L": 48,
      "M": 49,
      "N": 50,
      "O": 51,
      "P": 52,
      "Q": 53,
      "R": 54,
      "S": 55,
      "T": 56,
      "U": 57,
      "V": 58,
      "W": 59,
      "X": 60,
      "Y": 61,
      "Z": 62,
      "[": 63,
      "\\": 64,
      "]": 65,
      "^": 66,
      "_": 67,
      "`": 68,
      "a": 69,
      "b": 70,
      "c": 71,
      "d": 72,
      "e": 73,
      "f": 74,
      "g": 75,
      "h": 76,
      "i": 77,
      "j": 78,
      "k": 79,
      "l": 80,
      "m": 81,
      "n": 82,
      "o": 83,
      "p": 84,
      "q": 85,
      "r": 86,
      "s": 87,
      "t": 88,
      "u": 89,
      "v": 90,
      "w": 91,
      "x": 92,
      "y": 93,
      "z": 94,
      "{": 95,
      "|": 96,
      "}": 97,
      "~": 98,
      "£": 99,
      "©": 100,
      "«": 101,
      "­": 102,
      "®": 103,
      "°": 104,
      "±": 105,
      "²": 106,
      "³": 107,
      "´": 108,
      "·": 109,
      "¹": 110,
      "º": 111,
      "»": 112,
      "¼": 113,
      "½": 114,
      "¾": 115,
      "À": 116,
      "Á": 117,
      "Â": 118,
      "Ã": 119,
      "Å": 120,
      "È": 121,
      "É": 122,
      "Ê": 123,
      "Ì": 124,
      "Í": 125,
      "Î": 126,
      "Ð": 127,
      "Ò": 128,
      "Ó": 129,
      "Ô": 130,
      "Õ": 131,
      "Ö": 132,
      "×": 133,
      "Ù": 134,
      "Ú": 135,
      "Ý": 136,
      "ß": 137,
      "à": 138,
      "á": 139,
      "â": 140,
      "ã": 141,
      "ä": 142,
      "æ": 143,
      "ç": 144,
      "è": 145,
      "é": 146,
      "ê": 147,
      "ë": 148,
      "ì": 149,
      "í": 150,
      "î": 151,
      "ï": 152,
      "ð": 153,
      "ñ": 154,
      "ò": 155,
      "ó": 156,
      "ô": 157,
      "õ": 158,
      "ö": 159,
      "ù": 160,
      "ú": 161,
      "ü": 162,
      "ý": 163,
      "ā": 164,
      "Ă": 165,
      "ă": 166,
      "ą": 167,
      "ć": 168,
      "č": 169,
      "Đ": 170,
      "đ": 171,
      "ē": 172,
      "ě": 173,
      "ğ": 174,
      "Ĩ": 175,
      "ĩ": 176,
      "İ": 177,
      "Ł": 178,
      "ł": 179,
      "ń": 180,
      "ň": 181,
      "Ō": 182,
      "ō": 183,
      "œ": 184,
      "Ś": 185,
      "ş": 186,
      "š": 187,
      "ŧ": 188,
      "Ũ": 189,
      "ũ": 190,
      "ū": 191,
      "Ž": 192,
      "ž": 193,
      "Ƅ": 194,
      "Ơ": 195,
      "ơ": 196,
      "ƣ": 197,
      "Ư": 198,
      "ư": 199,
      "ǀ": 200,
      "ǎ": 201,
      "ǔ": 202,
      "ɑ": 203,
      "ʻ": 204,
      "ʼ": 205,
      "̀": 206,
      "́": 207,
      "̂": 208,
      "̃": 209,
      "̆": 210,
      "̉": 211,
      "̛": 212,
      "̣": 213,
      "α": 214,
      "γ": 215,
      "ε": 216,
      "η": 217,
      "θ": 218,
      "λ": 219,
      "ν": 220,
      "ο": 221,
      "ρ": 222,
      "ς": 223,
      "σ": 224,
      "τ": 225,
      "ό": 226,
      "ύ": 227,
      "Ѕ": 228,
      "Ж": 229,
      "М": 230,
      "Н": 231,
      "П": 232,
      "а": 233,
      "в": 234,
      "г": 235,
      "д": 236,
      "е": 237,
      "и": 238,
      "й": 239,
      "к": 240,
      "л": 241,
      "м": 242,
      "н": 243,
      "о": 244,
      "р": 245,
      "с": 246,
      "т": 247,
      "у": 248,
      "ч": 249,
      "ь": 250,
      "я": 251,
      "ا": 252,
      "د": 253,
      "ر": 254,
      "س": 255,
      "ف": 256,
      "ل": 257,
      "م": 258,
      "ن": 259,
      "و": 260,
      "ي": 261,
      "༾": 262,
      "༿": 263,
      "Ạ": 264,
      "ạ": 265,
      "Ả": 266,
      "ả": 267,
      "Ấ": 268,
      "ấ": 269,
      "Ầ": 270,
      "ầ": 271,
      "Ẩ": 272,
      "ẩ": 273,
      "Ẫ": 274,
      "ẫ": 275,
      "Ậ": 276,
      "ậ": 277,
      "Ắ": 278,
      "ắ": 279,
      "Ằ": 280,
      "ằ": 281,
      "Ẳ": 282,
      "ẳ": 283,
      "Ẵ": 284,
      "ẵ": 285,
      "Ặ": 286,
      "ặ": 287,
      "Ẹ": 288,
      "ẹ": 289,
      "Ẻ": 290,
      "ẻ": 291,
      "Ẽ": 292,
      "ẽ": 293,
      "Ế": 294,
      "ế": 295,
      "Ề": 296,
      "ề": 297,
      "Ể": 298,
      "ể": 299,
      "Ễ": 300,
      "ễ": 301,
      "Ệ": 302,
      "ệ": 303,
      "Ỉ": 304,
      "ỉ": 305,
      "Ị": 306,
      "ị": 307,
      "Ọ": 308,
      "ọ": 309,
      "Ỏ": 310,
      "ỏ": 311,
      "Ố": 312,
      "ố": 313,
      "Ồ": 314,
      "ồ": 315,
      "Ổ": 316,
      "ổ": 317,
      "Ỗ": 318,
      "ỗ": 319,
      "Ộ": 320,
      "ộ": 321,
      "Ớ": 322,
      "ớ": 323,
      "Ờ": 324,
      "ờ": 325,
      "Ở": 326,
      "ở": 327,
      "Ỡ": 328,
      "ỡ": 329,
      "Ợ": 330,
      "ợ": 331,
      "Ụ": 332,
      "ụ": 333,
      "Ủ": 334,
      "ủ": 335,
      "Ứ": 336,
      "ứ": 337,
      "Ừ": 338,
      "ừ": 339,
      "Ử": 340,
      "ử": 341,
      "Ữ": 342,
      "ữ": 343,
      "Ự": 344,
      "ự": 345,
      "Ỳ": 346,
      "ỳ": 347,
      "Ỵ": 348,
      "ỵ": 349,
      "Ỷ": 350,
      "ỷ": 351,
      "Ỹ": 352,
      "ỹ": 353,
      "ό": 354,
      "ύ": 355,
      "ᾰ": 356,
      "​": 357,
      "‎": 358,
      "‐": 359,
      "–": 360,
      "—": 361,
      "‘": 362,
      "’": 363,
      "“": 364,
      "”": 365,
      "•": 366,
      "…": 367,
      "′": 368,
      "″": 369,
      "‿": 370,
      "⁰": 371,
      "⁶": 372,
      "₫": 373,
      "€": 374,
      "℃": 375,
      "™": 376,
      "Ω": 377,
      "→": 378,
      "−": 379,
      "≤": 380,
      "≥": 381,
      "╯": 382,
      "╰": 383,
      "■": 384,
      "♔": 385,
      "♕": 386,
      "♚": 387,
      "♛": 388,
      "し": 389,
      "三": 390,
      "不": 391,
      "之": 392,
      "事": 393,
      "亡": 394,
      "亮": 395,
      "人": 396,
      "仲": 397,
      "伯": 398,
      "偕": 399,
      "傳": 400,
      "先": 401,
      "克": 402,
      "八": 403,
      "列": 404,
      "利": 405,
      "劉": 406,
      "南": 407,
      "原": 408,
      "及": 409,
      "反": 410,
      "只": 411,
      "史": 412,
      "司": 413,
      "向": 414,
      "君": 415,
      "呂": 416,
      "周": 417,
      "味": 418,
      "四": 419,
      "國": 420,
      "在": 421,
      "块": 422,
      "多": 423,
      "大": 424,
      "天": 425,
      "子": 426,
      "存": 427,
      "寔": 428,
      "寶": 429,
      "寿": 430,
      "尼": 431,
      "居": 432,
      "山": 433,
      "左": 434,
      "帝": 435,
      "年": 436,
      "序": 437,
      "心": 438,
      "志": 439,
      "情": 440,
      "戰": 441,
      "文": 442,
      "新": 443,
      "旗": 444,
      "易": 445,
      "春": 446,
      "曰": 447,
      "李": 448,
      "東": 449,
      "横": 450,
      "武": 451,
      "氏": 452,
      "水": 453,
      "河": 454,
      "油": 455,
      "漁": 456,
      "玉": 457,
      "璽": 458,
      "生": 459,
      "產": 460,
      "白": 461,
      "百": 462,
      "皇": 463,
      "秋": 464,
      "笄": 465,
      "策": 466,
      "红": 467,
      "纵": 468,
      "老": 469,
      "者": 470,
      "膏": 471,
      "花": 472,
      "苑": 473,
      "葛": 474,
      "葱": 475,
      "蛋": 476,
      "行": 477,
      "覆": 478,
      "見": 479,
      "記": 480,
      "語": 481,
      "說": 482,
      "諸": 483,
      "路": 484,
      "逆": 485,
      "酸": 486,
      "醬": 487,
      "金": 488,
      "錄": 489,
      "間": 490,
      "雕": 491,
      "難": 492,
      "順": 493,
      "餅": 494,
      "饵": 495,
      "饼": 496,
      "鮓": 497,
      "鮨": 498,
      "龍": 499,
      "노": 500,
      "대": 501,
      "부": 502,
      "적": 503,
      "제": 504,
      "종": 505,
      "주": 506,
      "합": 507,
      "": 508,
      "️": 509,
      "︶": 510,
      "︿": 511,
      "﻿": 512,
      "，": 513,
      "￼": 514,
      "ng": 515,
      "nh": 516,
      "ch": 517,
      "th": 518,
      "tr": 519,
      "kh": 520,
      "iệ": 521,
      "ph": 522,
      "ông": 523,
      "gi": 524,
      "uy": 525,
      "ên": 526,
      "và": 527,
      "ới": 528,
      "là": 529,
      "am": 530,
      "iế": 531,
      "ác": 532,
      "củ": 533,
      "của": 534,
      "ượ": 535,
      "qu": 536,
      "an": 537,
      "ất": 538,
      "có": 539,
      "ườ": 540,
      "ại": 541,
      "ong": 542,
      "ội": 543,
      "Th": 544,
      "ân": 545,
      "iề": 546,
      "iệt": 547,
      "ải": 548,
      "Nam": 549,
      "ình": 550,
      "ận": 551,
      "ược": 552,
      "ay": 553,
      "với": 554,
      "cho": 555,
      "Việt": 556,
      "không": 557,
      "các": 558,
      "ột": 559,
      "được": 560,
      "ầu": 561,
      "ày": 562,
      "ướ": 563,
      "trong": 564,
      "ang": 565,
      "ành": 566,
      "như": 567,
      "20": 568,
      "àn": 569,
      "iên": 570,
      "ững": 571,
      "ôi": 572,
      "ươ": 573,
      "ười": 574,
      "iều": 575,
      "một": 576,
      "đã": 577,
      "ần": 578,
      "Tr": 579,
      "ước": 580,
      "iể": 581,
      "ao": 582,
      "anh": 583,
      "ai": 584,
      "người": 585,
      "những": 586,
      "ra": 587,
      "ức": 588,
      "ngh": 589,
      "inh": 590,
      "ung": 591,
      "ương": 592,
      "ết": 593,
      "ến": 594,
      "ấu": 595,
      "óng": 596,
      "khi": 597,
      "uố": 598,
      "ài": 599,
      "ịch": 600,
      "iến": 601,
      "ách": 602,
      "au": 603,
      "on": 604,
      "đội": 605,
      "để": 606,
      "ũng": 607,
      "ực": 608,
      "thủ": 609,
      "đấu": 610,
      "đá": 611,
      "ây": 612,
      "ăn": 613,
      "iện": 614,
      "thể": 615,
      "Ch": 616,
      "từ": 617,
      "ường": 618,
      "àng": 619,
      "ời": 620,
      "Nh": 621,
      "Ng": 622,
      "nă": 623,
      "trận": 624,
      "Ph": 625,
      "đến": 626,
      "vào": 627,
      "ho": 628,
      "về": 629,
      "ển": 630,
      "uyển": 631,
      "ơn": 632,
      "cũng": 633,
      "ti": 634,
      "ái": 635,
      "này": 636,
      "eo": 637,
      "bóng": 638,
      "họ": 639,
      "đó": 640,
      "ối": 641,
      "òng": 642,
      "ia": 643,
      "ùng": 644,
      "ar": 645,
      "ập": 646,
      "nhiều": 647,
      "số": 648,
      "ấn": 649,
      "ắng": 650,
      "ồng": 651,
      "cả": 652,
      "tôi": 653,
      "ục": 654,
      "HL": 655,
      "ính": 656,
      "công": 657,
      "HLV": 658,
      "phải": 659,
      "ật": 660,
      "23": 661,
      "sẽ": 662,
      "độ": 663,
      "thành": 664,
      "lại": 665,
      "đầu": 666,
      "sự": 667,
      "thu": 668,
      "tại": 669,
      "ơi": 670,
      "ản": 671,
      "òn": 672,
      "năm": 673,
      "iểm": 674,
      "..": 675,
      "ảng": 676,
      "tiế": 677,
      "es": 678,
      "ổi": 679,
      "cầu": 680,
      "tuyển": 681,
      "trên": 682,
      "ẫn": 683,
      "âu": 684,
      "nhất": 685,
      "át": 686,
      "nhưng": 687,
      "án": 688,
      "nhà": 689,
      "ào": 690,
      "ưa": 691,
      "áo": 692,
      "chỉ": 693,
      "al": 694,
      "làm": 695,
      "ấy": 696,
      "ôn": 697,
      "trước": 698,
      "đị": 699,
      "rất": 700,
      "âm": 701,
      "úng": 702,
      "ạn": 703,
      "oàn": 704,
      "đi": 705,
      "ễn": 706,
      "en": 707,
      "mà": 708,
      "ền": 709,
      "or": 710,
      "ngày": 711,
      "gia": 712,
      "iết": 713,
      "hơn": 714,
      "ọng": 715,
      "sau": 716,
      "ạo": 717,
      "giải": 718,
      "iệc": 719,
      "ộc": 720,
      "19": 721,
      "er": 722,
      "bị": 723,
      "ưở": 724,
      "ưởng": 725,
      "iê": 726,
      "đồng": 727,
      "còn": 728,
      "thế": 729,
      "ượng": 730,
      "điểm": 731,
      "úc": 732,
      "ốc": 733,
      "lịch": 734,
      "ắc": 735,
      "ằng": 736,
      "lo": 737,
      "kết": 738,
      "iền": 739,
      "út": 740,
      "áng": 741,
      "ích": 742,
      "du": 743,
      "việc": 744,
      "00": 745,
      "thắng": 746,
      "uyệ": 747,
      "nó": 748,
      "in": 749,
      "ạt": 750,
      "học": 751,
      "U23": 752,
      "quy": 753,
      "sân": 754,
      "cu": 755,
      "thời": 756,
      "do": 757,
      "Qu": 758,
      "qua": 759,
      "nước": 760,
      "dự": 761,
      "uyên": 762,
      "hội": 763,
      "động": 764,
      "quan": 765,
      "di": 766,
      "ạnh": 767,
      "cùng": 768,
      "iệu": 769,
      "thì": 770,
      "hiện": 771,
      "đề": 772,
      "thi": 773,
      "22": 774,
      "à": 775,
      "ặt": 776,
      "em": 777,
      "nữ": 778,
      "đang": 779,
      "tập": 780,
      "Kh": 781,
      "mới": 782,
      "chính": 783,
      "ảo": 784,
      "Cu": 785,
      "khách": 786,
      "uyện": 787,
      "định": 788,
      "Văn": 789,
      "cơ": 790,
      "lên": 791,
      "con": 792,
      "đối": 793,
      "cao": 794,
      "êu": 795,
      "ắt": 796,
      "Hà": 797,
      "ồi": 798,
      "mình": 799,
      "kho": 800,
      "uốc": 801,
      "ốt": 802,
      "tiếp": 803,
      "vòng": 804,
      "ta": 805,
      "nói": 806,
      "ấp": 807,
      "bàn": 808,
      "Cup": 809,
      "ăng": 810,
      "nghiệ": 811,
      "chiến": 812,
      "ứng": 813,
      "chơi": 814,
      "vì": 815,
      "tới": 816,
      "vẫn": 817,
      "iển": 818,
      "ọn": 819,
      "tin": 820,
      "biết": 821,
      "nhận": 822,
      "Par": 823,
      "ặc": 824,
      "Ho": 825,
      "uổi": 826,
      "hình": 827,
      "hai": 828,
      "viên": 829,
      "nên": 830,
      "ea": 831,
      "ống": 832,
      "Quốc": 833,
      "lu": 834,
      "Anh": 835,
      "điều": 836,
      "nhân": 837,
      "hay": 838,
      "đây": 839,
      "cách": 840,
      "ếu": 841,
      "Park": 842,
      "quốc": 843,
      "lớ": 844,
      "trọng": 845,
      "ầy": 846,
      "giá": 847,
      "thực": 848,
      "hàng": 849,
      "theo": 850,
      "ánh": 851,
      "ạng": 852,
      "ợp": 853,
      "...": 854,
      "chúng": 855,
      "tổ": 856,
      "gu": 857,
      "uyền": 858,
      "chủ": 859,
      "tâm": 860,
      "gh": 861,
      "chức": 862,
      "Lan": 863,
      "hợp": 864,
      "tiền": 865,
      "phát": 866,
      "lần": 867,
      "Thái": 868,
      "ưng": 869,
      "tốt": 870,
      "lực": 871,
      "áp": 872,
      "thứ": 873,
      "tài": 874,
      "tế": 875,
      "uất": 876,
      "khác": 877,
      "Công": 878,
      "gue": 879,
      "lý": 880,
      "khó": 881,
      "trình": 882,
      "nay": 883,
      "Gi": 884,
      "el": 885,
      "chưa": 886,
      "nhiên": 887,
      "nào": 888,
      "lớn": 889,
      "môn": 890,
      "giữ": 891,
      "êm": 892,
      "ặp": 893,
      "ngo": 894,
      "Lea": 895,
      "Nội": 896,
      "iểu": 897,
      "trở": 898,
      "cuộc": 899,
      "ởi": 900,
      "Đức": 901,
      "League": 902,
      "CL": 903,
      "úp": 904,
      "Nguy": 905,
      "Trong": 906,
      "HC": 907,
      "quả": 908,
      "tham": 909,
      "gian": 910,
      "dân": 911,
      "vô": 912,
      "Nguyễn": 913,
      "đường": 914,
      "tạo": 915,
      "hành": 916,
      "giới": 917,
      "toàn": 918,
      "ỗi": 919,
      "CLB": 920,
      "chu": 921,
      "ừa": 922,
      "Hải": 923,
      "vị": 924,
      "thông": 925,
      "10": 926,
      "tự": 927,
      "vệ": 928,
      "ượt": 929,
      "thấy": 930,
      "ẳng": 931,
      "trung": 932,
      "ld": 933,
      "á": 934,
      "tỉ": 935,
      "201": 936,
      "ậy": 937,
      "),": 938,
      "to": 939,
      "mặt": 940,
      "trường": 941,
      "ẩn": 942,
      "ùa": 943,
      "diễn": 944,
      "uấn": 945,
      "ọi": 946,
      "gì": 947,
      "cần": 948,
      "ừng": 949,
      "đánh": 950,
      "uối": 951,
      "ắn": 952,
      "vi": 953,
      "bảng": 954,
      "uốn": 955,
      "gặp": 956,
      "tình": 957,
      "châu": 958,
      "năng": 959,
      "Tôi": 960,
      "Wor": 961,
      "sinh": 962,
      "xuất": 963,
      "World": 964,
      "rằng": 965,
      "Hang": 966,
      "khu": 967,
      "Seo": 968,
      "li": 969,
      "trưởng": 970,
      "bộ": 971,
      "óa": 972,
      "tích": 973,
      "quyết": 974,
      "ỏi": 975,
      "ạm": 976,
      "cứ": 977,
      "báo": 978,
      "đạo": 979,
      "bạn": 980,
      "ọc": 981,
      "tác": 982,
      "chia": 983,
      "loại": 984,
      "chung": 985,
      "ậu": 986,
      "mạnh": 987,
      "FF": 988,
      "nghiệp": 989,
      "tiên": 990,
      "Sau": 991,
      "nghĩ": 992,
      "co": 993,
      "trẻ": 994,
      "quá": 995,
      "giành": 996,
      "ảnh": 997,
      "ầm": 998,
      "uống": 999,
      "ướng": 1000,
      "2022": 1001,
      "thao": 1002,
      "Trung": 1003,
      "bằng": 1004,
      "đều": 1005,
      "ụng": 1006,
      "triển": 1007,
      "thức": 1008,
      "dẫn": 1009,
      "đo": 1010,
      "ua": 1011,
      "trò": 1012,
      "ồn": 1013,
      "giờ": 1014,
      ").": 1015,
      "tư": 1016,
      "tháng": 1017,
      "Thanh": 1018,
      "EA": 1019,
      "In": 1020,
      "thay": 1021,
      "SEA": 1022,
      "so": 1023,
      "Hoàng": 1024,
      "Nhưng": 1025,
      "ăm": 1026,
      "vụ": 1027,
      "im": 1028,
      "phương": 1029,
      "ợi": 1030,
      "tay": 1031,
      "vậy": 1032,
      "ames": 1033,
      "TP": 1034,
      "ur": 1035,
      "tục": 1036,
      "bản": 1037,
      "đại": 1038,
      "ạch": 1039,
      "quân": 1040,
      "tiêu": 1041,
      "ấm": 1042,
      "ộng": 1043,
      "ưới": 1044,
      "tính": 1045,
      "đoàn": 1046,
      "muốn": 1047,
      "Thu": 1048,
      "đưa": 1049,
      "Games": 1050,
      "giúp": 1051,
      "ba": 1052,
      "phút": 1053,
      "''": 1054,
      "vừa": 1055,
      "địa": 1056,
      "sức": 1057,
      "kinh": 1058,
      "ạc": 1059,
      "giữa": 1060,
      "bất": 1061,
      "mùa": 1062,
      "địch": 1063,
      "lượng": 1064,
      "dịch": 1065,
      "2023": 1066,
      "11": 1067,
      "sử": 1068,
      "cái": 1069,
      "biệt": 1070,
      "us": 1071,
      "chuẩn": 1072,
      "thương": 1073,
      "21": 1074,
      "ữu": 1075,
      "từng": 1076,
      "òa": 1077,
      "is": 1078,
      "et": 1079,
      "sống": 1080,
      "bảo": 1081,
      "sao": 1082,
      "dụng": 1083,
      "ộ": 1084,
      "lúc": 1085,
      "cuối": 1086,
      "chuyên": 1087,
      "chí": 1088,
      "ghi": 1089,
      "tuổi": 1090,
      "iệm": 1091,
      "liên": 1092,
      "ẹp": 1093,
      "gần": 1094,
      "Vi": 1095,
      "văn": 1096,
      "tiếng": 1097,
      "phố": 1098,
      "khiến": 1099,
      "hệ": 1100,
      "giả": 1101,
      "ằm": 1102,
      "phí": 1103,
      "mang": 1104,
      "cảm": 1105,
      "kỳ": 1106,
      "rồi": 1107,
      "đổi": 1108,
      "thua": 1109,
      "khá": 1110,
      "TT": 1111,
      "ìm": 1112,
      "phần": 1113,
      "nhau": 1114,
      "thầy": 1115,
      "danh": 1116,
      "Bình": 1117,
      "tranh": 1118,
      "uyến": 1119,
      "”.": 1120,
      "ca": 1121,
      "si": 1122,
      "thêm": 1123,
      "FC": 1124,
      "đất": 1125,
      "bán": 1126,
      "gó": 1127,
      "cấp": 1128,
      "bên": 1129,
      "nơi": 1130,
      "phòng": 1131,
      "́t": 1132,
      "hết": 1133,
      "don": 1134,
      "thường": 1135,
      "Tuấn": 1136,
      "ngoài": 1137,
      "phục": 1138,
      "U22": 1139,
      "chuyện": 1140,
      "pha": 1141,
      "ưu": 1142,
      "Tuy": 1143,
      "sáng": 1144,
      "12": 1145,
      "ắm": 1146,
      "ặng": 1147,
      "hóa": 1148,
      "ty": 1149,
      "uân": 1150,
      "hiệu": 1151,
      "bắt": 1152,
      "nghiệm": 1153,
      "un": 1154,
      "sách": 1155,
      "đẹp": 1156,
      "Quang": 1157,
      "\".": 1158,
      "ẩm": 1159,
      "hoàn": 1160,
      "ửa": 1161,
      "bởi": 1162,
      "xem": 1163,
      "hạng": 1164,
      "Phượng": 1165,
      "tìm": 1166,
      "kiến": 1167,
      "Hàn": 1168,
      "ít": 1169,
      "Theo": 1170,
      "nếu": 1171,
      "chân": 1172,
      "HCM": 1173,
      "gọn": 1174,
      "iệp": 1175,
      "ìn": 1176,
      "ổng": 1177,
      "trí": 1178,
      "cảnh": 1179,
      "iếu": 1180,
      "đặc": 1181,
      "000": 1182,
      "xã": 1183,
      "ĐV": 1184,
      "sản": 1185,
      "ệnh": 1186,
      "vực": 1187,
      "bố": 1188,
      "15": 1189,
      "la": 1190,
      "truyền": 1191,
      "luyện": 1192,
      "́c": 1193,
      "lời": 1194,
      "đáng": 1195,
      "HA": 1196,
      "esia": 1197,
      "Indon": 1198,
      "mở": 1199,
      "Indonesia": 1200,
      "triệu": 1201,
      "vọng": 1202,
      "dù": 1203,
      "tỉnh": 1204,
      "bình": 1205,
      "chọn": 1206,
      "An": 1207,
      "ép": 1208,
      "ri": 1209,
      "chất": 1210,
      "chi": 1211,
      "sắc": 1212,
      "GL": 1213,
      "yêu": 1214,
      "cô": 1215,
      "bài": 1216,
      "giao": 1217,
      "30": 1218,
      "ngay": 1219,
      "18": 1220,
      "Minh": 1221,
      "̣c": 1222,
      "Các": 1223,
      "bu": 1224,
      "xe": 1225,
      "17": 1226,
      "sia": 1227,
      "ếp": 1228,
      "đủ": 1229,
      "ậm": 1230,
      "chuyển": 1231,
      "hoạt": 1232,
      "tu": 1233,
      "khoảng": 1234,
      "te": 1235,
      "HAGL": 1236,
      "nữa": 1237,
      "bại": 1238,
      "thống": 1239,
      "trợ": 1240,
      "ét": 1241,
      "vấn": 1242,
      "chị": 1243,
      "2020": 1244,
      "bao": 1245,
      "cứu": 1246,
      "mọi": 1247,
      "Mỹ": 1248,
      "ạy": 1249,
      "mục": 1250,
      "Những": 1251,
      "chương": 1252,
      "thị": 1253,
      "đa": 1254,
      "thuật": 1255,
      "ui": 1256,
      "ngôi": 1257,
      "hướng": 1258,
      "luôn": 1259,
      "lượt": 1260,
      "16": 1261,
      "́i": 1262,
      "Mal": 1263,
      "óm": 1264,
      "ôm": 1265,
      "́ng": 1266,
      "mỗi": 1267,
      "ly": 1268,
      "vé": 1269,
      "ban": 1270,
      "Đây": 1271,
      "ĩnh": 1272,
      "quyền": 1273,
      "ing": 1274,
      "nội": 1275,
      "tho": 1276,
      "khai": 1277,
      "đơn": 1278,
      "Ông": 1279,
      "trị": 1280,
      "tên": 1281,
      "cá": 1282,
      "buổi": 1283,
      "Nhật": 1284,
      "phong": 1285,
      "Du": 1286,
      "́n": 1287,
      "dựng": 1288,
      "Không": 1289,
      "Thị": 1290,
      "xây": 1291,
      "iêng": 1292,
      "̀ng": 1293,
      "lập": 1294,
      "VFF": 1295,
      "tăng": 1296,
      "sở": 1297,
      "Đông": 1298,
      "nổi": 1299,
      "lợi": 1300,
      "dài": 1301,
      "ic": 1302,
      "Xuân": 1303,
      "pp": 1304,
      "câu": 1305,
      "Một": 1306,
      "thân": 1307,
      "and": 1308,
      "tượng": 1309,
      "ắp": 1310,
      "ậ": 1311,
      "Malay": 1312,
      "uyết": 1313,
      "đặt": 1314,
      "thuộc": 1315,
      "bỏ": 1316,
      "Trường": 1317,
      "Malaysia": 1318,
      "hoặc": 1319,
      "khăn": 1320,
      "hỏi": 1321,
      "hoa": 1322,
      "úi": 1323,
      "sang": 1324,
      "bay": 1325,
      "kể": 1326,
      "sĩ": 1327,
      "phá": 1328,
      "diện": 1329,
      "as": 1330,
      "nhiệm": 1331,
      "VN": 1332,
      "thích": 1333,
      "U20": 1334,
      "̀n": 1335,
      "đầy": 1336,
      "Quảng": 1337,
      "ứt": 1338,
      "đình": 1339,
      "U19": 1340,
      "le": 1341,
      "nhìn": 1342,
      "ứa": 1343,
      "thật": 1344,
      "iêu": 1345,
      "Tiến": 1346,
      "doanh": 1347,
      "vượt": 1348,
      "amp": 1349,
      "Đại": 1350,
      "sút": 1351,
      "ãi": 1352,
      "cổ": 1353,
      "tinh": 1354,
      "thần": 1355,
      "bước": 1356,
      "mộ": 1357,
      "Phi": 1358,
      "kiện": 1359,
      "giáo": 1360,
      "Bản": 1361,
      "Đội": 1362,
      "má": 1363,
      "bệnh": 1364,
      "vui": 1365,
      "ể": 1366,
      "hòa": 1367,
      "mẹ": 1368,
      "Với": 1369,
      "dễ": 1370,
      "ịp": 1371,
      "Dương": 1372,
      "tương": 1373,
      "iếm": 1374,
      "Tổng": 1375,
      "mắt": 1376,
      "Thắng": 1377,
      "Có": 1378,
      "tất": 1379,
      "Ban": 1380,
      "xa": 1381,
      "bo": 1382,
      "khoa": 1383,
      "sẻ": 1384,
      "tịch": 1385,
      "hiểu": 1386,
      "at": 1387,
      "nam": 1388,
      "nghĩa": 1389,
      "phía": 1390,
      "kế": 1391,
      "xếp": 1392,
      "ro": 1393,
      "Chúng": 1394,
      "phẩm": 1395,
      "̀u": 1396,
      "xác": 1397,
      "biến": 1398,
      "”,": 1399,
      "hữu": 1400,
      "2019": 1401,
      "xuống": 1402,
      "rõ": 1403,
      "khả": 1404,
      "cạnh": 1405,
      "cố": 1406,
      "tối": 1407,
      "đời": 1408,
      "mất": 1409,
      "ké": 1410,
      "\",": 1411,
      "góp": 1412,
      "ảy": 1413,
      "nhập": 1414,
      "nhỏ": 1415,
      "Viet": 1416,
      "lòng": 1417,
      "vàng": 1418,
      "tiến": 1419,
      "tỷ": 1420,
      "ịnh": 1421,
      "̉a": 1422,
      "lã": 1423,
      "Lê": 1424,
      "pháp": 1425,
      "Tây": 1426,
      "nghỉ": 1427,
      "gây": 1428,
      "dành": 1429,
      "ký": 1430,
      "hậu": 1431,
      "hoạch": 1432,
      "hâm": 1433,
      "VĐV": 1434,
      "bà": 1435,
      "Co": 1436,
      "hưởng": 1437,
      "biển": 1438,
      "nhanh": 1439,
      "vận": 1440,
      "gọi": 1441,
      "trang": 1442,
      "ốn": 1443,
      "thất": 1444,
      "đô": 1445,
      "là": 1446,
      "AFF": 1447,
      "mua": 1448,
      "chế": 1449,
      "àu": 1450,
      "ngành": 1451,
      "ảm": 1452,
      "chắc": 1453,
      "đúng": 1454,
      "biểu": 1455,
      "huy": 1456,
      "tưởng": 1457,
      "̉i": 1458,
      "nghệ": 1459,
      "il": 1460,
      "cú": 1461,
      "nhóm": 1462,
      "dung": 1463,
      "Trước": 1464,
      "âng": 1465,
      "và": 1466,
      "chiều": 1467,
      "càng": 1468,
      "ớm": 1469,
      "Đà": 1470,
      "ad": 1471,
      "Thành": 1472,
      "por": 1473,
      "tấn": 1474,
      "yếu": 1475,
      "ĐT": 1476,
      "Sơn": 1477,
      "của": 1478,
      "Trần": 1479,
      "Và": 1480,
      "hạn": 1481,
      "trả": 1482,
      "31": 1483,
      "thúc": 1484,
      "phạt": 1485,
      "To": 1486,
      "kỷ": 1487,
      "ngu": 1488,
      "ùi": 1489,
      "trực": 1490,
      "Bộ": 1491,
      "nằm": 1492,
      "iềm": 1493,
      "đảo": 1494,
      "đứng": 1495,
      "Khi": 1496,
      "sớm": 1497,
      "iêm": 1498,
      "Dũng": 1499,
      "iếc": 1500,
      "bầu": 1501,
      "Nếu": 1502,
      "dưới": 1503,
      "Giải": 1504,
      "kỹ": 1505,
      "̃ng": 1506,
      "̀i": 1507,
      "thư": 1508,
      "Đình": 1509,
      "200": 1510,
      "vùng": 1511,
      "Ngo": 1512,
      "ám": 1513,
      "sư": 1514,
      "iệ": 1515,
      "nghiên": 1516,
      "hiệp": 1517,
      "ts": 1518,
      "đoạn": 1519,
      "thiếu": 1520,
      "thiết": 1521,
      "Định": 1522,
      "đạt": 1523,
      "cục": 1524,
      "cực": 1525,
      "14": 1526,
      "thưởng": 1527,
      "sát": 1528,
      "chẳng": 1529,
      "viết": 1530,
      "Do": 1531,
      "Man": 1532,
      "chấn": 1533,
      "24": 1534,
      "trải": 1535,
      "Dù": 1536,
      "2021": 1537,
      "kiểm": 1538,
      "ter": 1539,
      "Ninh": 1540,
      "Hữu": 1541,
      "13": 1542,
      "ưỡ": 1543,
      "cây": 1544,
      "Từ": 1545,
      "ồm": 1546,
      "riêng": 1547,
      "uyệt": 1548,
      "tỏ": 1549,
      "Nha": 1550,
      "trái": 1551,
      "vật": 1552,
      "Ar": 1553,
      "ol": 1554,
      "máy": 1555,
      "Pháp": 1556,
      "cộng": 1557,
      "dùng": 1558,
      "lễ": 1559,
      "hi": 1560,
      "vài": 1561,
      "Ngày": 1562,
      "lưu": 1563,
      "lối": 1564,
      "ngờ": 1565,
      "dứt": 1566,
      "lưới": 1567,
      "Thế": 1568,
      "̣i": 1569,
      "mar": 1570,
      "lấy": 1571,
      "hồi": 1572,
      "chuyến": 1573,
      "Ngọc": 1574,
      "chạy": 1575,
      "Phili": 1576,
      "ới": 1577,
      "Philipp": 1578,
      "đón": 1579,
      "phụ": 1580,
      "huống": 1581,
      "va": 1582,
      "nguyên": 1583,
      "hôm": 1584,
      "Tuyển": 1585,
      "huấn": 1586,
      "sai": 1587,
      "đôi": 1588,
      "tra": 1589,
      "liệu": 1590,
      "phản": 1591,
      "gồm": 1592,
      "duy": 1593,
      "cửa": 1594,
      "chứng": 1595,
      "tổng": 1596,
      "phân": 1597,
      "vid": 1598,
      "Hồ": 1599,
      "đông": 1600,
      "Đó": 1601,
      "ở": 1602,
      "HCV": 1603,
      "nguồn": 1604,
      "ẵng": 1605,
      "ak": 1606,
      "điện": 1607,
      "ẩy": 1608,
      "đỏ": 1609,
      "Long": 1610,
      "cánh": 1611,
      "tel": 1612,
      "ưỡng": 1613,
      "Chính": 1614,
      "Nẵng": 1615,
      "chú": 1616,
      "chiếc": 1617,
      "Thủ": 1618,
      "Ngh": 1619,
      "Phòng": 1620,
      "ấ": 1621,
      "cá": 1622,
      "đăng": 1623,
      "mp": 1624,
      "nghị": 1625,
      "25": 1626,
      "My": 1627,
      "tan": 1628,
      "chờ": 1629,
      "núi": 1630,
      "quản": 1631,
      "2018": 1632,
      "mức": 1633,
      "nhằm": 1634,
      "Điều": 1635,
      "Sài": 1636,
      "Ne": 1637,
      "đâu": 1638,
      "nâng": 1639,
      "Bắc": 1640,
      "Chủ": 1641,
      "FA": 1642,
      "ựa": 1643,
      "Li": 1644,
      "khởi": 1645,
      "màn": 1646,
      "chắn": 1647,
      "tiết": 1648,
      "Trọng": 1649,
      "Hội": 1650,
      "óc": 1651,
      "đóng": 1652,
      "ed": 1653,
      "lệ": 1654,
      "Nhà": 1655,
      "Người": 1656,
      "Hu": 1657,
      "màu": 1658,
      "Liên": 1659,
      "đồ": 1660,
      "Gòn": 1661,
      "xin": 1662,
      "nỗ": 1663,
      "khẳng": 1664,
      "Thể": 1665,
      "đào": 1666,
      "thơ": 1667,
      "lãnh": 1668,
      "mong": 1669,
      "Như": 1670,
      "thuyền": 1671,
      "hộ": 1672,
      "Mi": 1673,
      "lâu": 1674,
      "sông": 1675,
      "trao": 1676,
      "lẽ": 1677,
      "ngoại": 1678,
      "giai": 1679,
      "ất": 1680,
      "kê": 1681,
      "phủ": 1682,
      "Mai": 1683,
      "Viettel": 1684,
      "Ngoài": 1685,
      "òi": 1686,
      "chấp": 1687,
      "đảm": 1688,
      "50": 1689,
      "xanh": 1690,
      "xúc": 1691,
      "Camp": 1692,
      "quê": 1693,
      "luật": 1694,
      "Chung": 1695,
      "Ba": 1696,
      "luận": 1697,
      "ợt": 1698,
      "ón": 1699,
      "cụ": 1700,
      "tuần": 1701,
      "lao": 1702,
      "thăm": 1703,
      "Bóng": 1704,
      "ữa": 1705,
      "ine": 1706,
      "tung": 1707,
      "ói": 1708,
      "nguy": 1709,
      "chịu": 1710,
      "khung": 1711,
      "ỉnh": 1712,
      "Tại": 1713,
      "eal": 1714,
      "ãy": 1715,
      "Họ": 1716,
      "cấm": 1717,
      "giảm": 1718,
      "mạng": 1719,
      "Al": 1720,
      "thiện": 1721,
      "cầm": 1722,
      "đẩy": 1723,
      "Vì": 1724,
      "hiểm": 1725,
      "Đồng": 1726,
      "viện": 1727,
      "ột": 1728,
      "Hồng": 1729,
      "hỗ": 1730,
      "se": 1731,
      "xét": 1732,
      "binh": 1733,
      "ạp": 1734,
      "2016": 1735,
      "phạm": 1736,
      "rộng": 1737,
      "nhớ": 1738,
      "nền": 1739,
      "ity": 1740,
      "ma": 1741,
      "dục": 1742,
      "tử": 1743,
      "Vũ": 1744,
      "MU": 1745,
      "khán": 1746,
      "uchia": 1747,
      "Campuchia": 1748,
      "xử": 1749,
      "có": 1750,
      "VC": 1751,
      "apor": 1752,
      "ội": 1753,
      "Toàn": 1754,
      "ẵn": 1755,
      "khí": 1756,
      "đêm": 1757,
      "Âu": 1758,
      "chống": 1759,
      "Sing": 1760,
      "hút": 1761,
      "Vinh": 1762,
      "uốt": 1763,
      "Duy": 1764,
      "Hùng": 1765,
      "ha": 1766,
      "cung": 1767,
      "làng": 1768,
      "hồ": 1769,
      "cự": 1770,
      "trời": 1771,
      "èo": 1772,
      "Huy": 1773,
      "tố": 1774,
      "apore": 1775,
      "Singapore": 1776,
      "lộ": 1777,
      "trách": 1778,
      "quen": 1779,
      "vai": 1780,
      "Ha": 1781,
      "sẵn": 1782,
      "Hóa": 1783,
      "đê": 1784,
      "26": 1785,
      "ọt": 1786,
      "mi": 1787,
      "VCK": 1788,
      "32": 1789,
      "nặng": 1790,
      "mô": 1791,
      "độc": 1792,
      "tấm": 1793,
      "Hậu": 1794,
      "su": 1795,
      "nghe": 1796,
      "Trận": 1797,
      "xứ": 1798,
      "áu": 1799,
      "lược": 1800,
      "may": 1801,
      "niềm": 1802,
      "tuyệt": 1803,
      "Hai": 1804,
      "lymp": 1805,
      "gái": 1806,
      "ràng": 1807,
      "̀nh": 1808,
      "ngồi": 1809,
      "minh": 1810,
      "tận": 1811,
      "Linh": 1812,
      "khỏi": 1813,
      "lympic": 1814,
      "re": 1815,
      "Khánh": 1816,
      "ế": 1817,
      "Myan": 1818,
      "Phạm": 1819,
      "Gia": 1820,
      "Mạnh": 1821,
      "đua": 1822,
      "Myanmar": 1823,
      "City": 1824,
      "thử": 1825,
      "ín": 1826,
      "rừng": 1827,
      "chứ": 1828,
      "Phú": 1829,
      "miền": 1830,
      "Mar": 1831,
      "ines": 1832,
      "bia": 1833,
      "lỗi": 1834,
      "ận": 1835,
      "gen": 1836,
      "cáo": 1837,
      "Olympic": 1838,
      "món": 1839,
      "Lâm": 1840,
      "sàng": 1841,
      "ửi": 1842,
      "buộc": 1843,
      "sơ": 1844,
      "chỗ": 1845,
      "tuyến": 1846,
      "Lu": 1847,
      "sắp": 1848,
      "cha": 1849,
      "Năm": 1850,
      "một": 1851,
      "bác": 1852,
      "tức": 1853,
      "lai": 1854,
      "kiếm": 1855,
      "thiên": 1856,
      "chuyền": 1857,
      "ek": 1858,
      "thậm": 1859,
      "ãn": 1860,
      "ver": 1861,
      "huyện": 1862,
      "nóng": 1863,
      "lẫn": 1864,
      "ck": 1865,
      "UA": 1866,
      "sạn": 1867,
      "biên": 1868,
      "giống": 1869,
      "Ro": 1870,
      "Hòa": 1871,
      "trạng": 1872,
      "kéo": 1873,
      "NA": 1874,
      "phép": 1875,
      "vẻ": 1876,
      "nhi": 1877,
      "hy": 1878,
      "lựa": 1879,
      "ous": 1880,
      "tầm": 1881,
      "UAE": 1882,
      "Phó": 1883,
      "100": 1884,
      "rút": 1885,
      "Giang": 1886,
      "FI": 1887,
      "phối": 1888,
      "po": 1889,
      "lớp": 1890,
      "mừng": 1891,
      "essi": 1892,
      "nhờ": 1893,
      "29": 1894,
      "Còn": 1895,
      "cử": 1896,
      "bật": 1897,
      "vốn": 1898,
      "̣ng": 1899,
      "Nguyên": 1900,
      "Nghệ": 1901,
      "đàn": 1902,
      "tiếc": 1903,
      "thanh": 1904,
      "gắng": 1905,
      "2017": 1906,
      "bi": 1907,
      "lục": 1908,
      "ẹn": 1909,
      "hấp": 1910,
      "ày": 1911,
      "dòng": 1912,
      "ầu": 1913,
      "90": 1914,
      "Mo": 1915,
      "ủng": 1916,
      "thuận": 1917,
      "suốt": 1918,
      "thú": 1919,
      "với": 1920,
      "Việc": 1921,
      "thôi": 1922,
      "mu": 1923,
      "ặn": 1924,
      "trụ": 1925,
      "Le": 1926,
      "các": 1927,
      "gửi": 1928,
      "lương": 1929,
      "mấy": 1930,
      "FIFA": 1931,
      "Lịch": 1932,
      "ẫu": 1933,
      "Đoàn": 1934,
      "sen": 1935,
      "đươ": 1936,
      "sa": 1937,
      "Để": 1938,
      "VI": 1939,
      "họp": 1940,
      "bé": 1941,
      "alia": 1942,
      "soát": 1943,
      "Lào": 1944,
      "Sa": 1945,
      "ce": 1946,
      "tuy": 1947,
      "uts": 1948,
      "ót": 1949,
      "xảy": 1950,
      "Philippines": 1951,
      "̣t": 1952,
      "kém": 1953,
      "àn": 1954,
      "niệm": 1955,
      "Chí": 1956,
      "̉ng": 1957,
      "gỡ": 1958,
      "tướng": 1959,
      "băng": 1960,
      "CĐV": 1961,
      "ND": 1962,
      "xuyên": 1963,
      "hạ": 1964,
      "cựu": 1965,
      "ngự": 1966,
      "nghề": 1967,
      "utsal": 1968,
      "quanh": 1969,
      "loạt": 1970,
      "góc": 1971,
      "sâu": 1972,
      "tuyên": 1973,
      "SL": 1974,
      "dịp": 1975,
      "Bùi": 1976,
      "da": 1977,
      "Covid": 1978,
      "New": 1979,
      "Trous": 1980,
      "sier": 1981,
      "đốc": 1982,
      "Troussier": 1983,
      "khắc": 1984,
      "ord": 1985,
      "Đến": 1986,
      "mơ": 1987,
      "Vòng": 1988,
      "ần": 1989,
      "phù": 1990,
      "niên": 1991,
      "đau": 1992,
      "cư": 1993,
      "ỳnh": 1994,
      "Châu": 1995,
      "ni": 1996,
      "Ma": 1997,
      "cột": 1998,
      "môi": 1999,
      "tạm": 2000,
      "nhật": 2001,
      "ne": 2002,
      "nhu": 2003,
      "tộc": 2004,
      "Chỉ": 2005,
      "SLNA": 2006,
      "Aus": 2007,
      "lạc": 2008,
      "TTO": 2009,
      "suất": 2010,
      "thấp": 2011,
      "thẳng": 2012,
      "bổ": 2013,
      "Nhất": 2014,
      "dàng": 2015,
      "TPHCM": 2016,
      "khám": 2017,
      "27": 2018,
      "nghi": 2019,
      "Austr": 2020,
      "Tiền": 2021,
      "Ngay": 2022,
      "ou": 2023,
      "hương": 2024,
      "toán": 2025,
      "đài": 2026,
      "tour": 2027,
      "vs": 2028,
      "Sự": 2029,
      "CO": 2030,
      "trắng": 2031,
      "èn": 2032,
      "Quyết": 2033,
      "dấu": 2034,
      "km": 2035,
      "Messi": 2036,
      "chạm": 2037,
      "Bà": 2038,
      "Kết": 2039,
      "of": 2040,
      "CT": 2041,
      "quảng": 2042,
      "lĩnh": 2043,
      "no": 2044,
      "ụp": 2045,
      "07": 2046,
      "Australia": 2047,
      "đền": 2048,
      "Hàng": 2049,
      "rời": 2050,
      "uro": 2051,
      "Di": 2052,
      "Br": 2053,
      "ễm": 2054,
      "coi": 2055,
      "đáp": 2056,
      "xu": 2057,
      "trai": 2058,
      "Kim": 2059,
      "quý": 2060,
      "ãng": 2061,
      "ons": 2062,
      "vợ": 2063,
      "quay": 2064,
      "Về": 2065,
      "ổn": 2066,
      "28": 2067,
      "dư": 2068,
      "ngang": 2069,
      "Hiệp": 2070,
      "ve": 2071,
      "àm": 2072,
      "ngược": 2073,
      "man": 2074,
      "căng": 2075,
      "ườn": 2076,
      "đọc": 2077,
      "thái": 2078,
      "06": 2079,
      "được": 2080,
      "tàu": 2081,
      "bóng": 2082,
      "dạy": 2083,
      "cải": 2084,
      "ky": 2085,
      "Nhiều": 2086,
      "de": 2087,
      "thẻ": 2088,
      "hè": 2089,
      "Vid": 2090,
      "đương": 2091,
      "Tết": 2092,
      "trì": 2093,
      "đá": 2094,
      "Hiện": 2095,
      "cân": 2096,
      "Cầu": 2097,
      "những": 2098,
      "phóng": 2099,
      "Phan": 2100,
      "đợi": 2101,
      "ngươ": 2102,
      "khỏ": 2103,
      "cờ": 2104,
      "cũ": 2105,
      "̃n": 2106,
      "đã": 2107,
      "ộn": 2108,
      "Chiến": 2109,
      "ki": 2110,
      "Hoa": 2111,
      "nhạc": 2112,
      "chồng": 2113,
      "kịp": 2114,
      "dưỡng": 2115,
      "thừa": 2116,
      "ton": 2117,
      "gắn": 2118,
      "dắt": 2119,
      "̣n": 2120,
      "cc": 2121,
      "Bên": 2122,
      "tô": 2123,
      "ấu": 2124,
      "40": 2125,
      "TC": 2126,
      "Lai": 2127,
      "Than": 2128,
      "Video": 2129,
      "cập": 2130,
      "cường": 2131,
      "khỏe": 2132,
      "thác": 2133,
      "tái": 2134,
      "ok": 2135,
      "US": 2136,
      "go": 2137,
      "hào": 2138,
      "08": 2139,
      "ghế": 2140,
      "Nói": 2141,
      "onal": 2142,
      "cán": 2143,
      "ru": 2144,
      "istan": 2145,
      "giác": 2146,
      "cận": 2147,
      "AFC": 2148,
      "Úc": 2149,
      "nghiêm": 2150,
      "vo": 2151,
      "Đào": 2152,
      "nhấn": 2153,
      "quán": 2154,
      "nhắc": 2155,
      "ga": 2156,
      "mời": 2157,
      "vũ": 2158,
      "Cũng": 2159,
      "Lo": 2160,
      "chăm": 2161,
      "giản": 2162,
      "bức": 2163,
      "hài": 2164,
      "nông": 2165,
      "mê": 2166,
      "Con": 2167,
      "ĐTVN": 2168,
      "Ta": 2169,
      "ran": 2170,
      "căn": 2171,
      "hơi": 2172,
      "Mad": 2173,
      "ngắn": 2174,
      "thể": 2175,
      "thuốc": 2176,
      "nhiệt": 2177,
      "chút": 2178,
      "ước": 2179,
      "dừng": 2180,
      "the": 2181,
      "ụy": 2182,
      "45": 2183,
      "đỉnh": 2184,
      "giám": 2185,
      "tri": 2186,
      "người": 2187,
      "QG": 2188,
      "vững": 2189,
      "La": 2190,
      "đến": 2191,
      "Saudi": 2192,
      "nhiễm": 2193,
      "mắc": 2194,
      "Sở": 2195,
      "nối": 2196,
      "Trên": 2197,
      "son": 2198,
      "Huỳnh": 2199,
      "đổ": 2200,
      "ẫy": 2201,
      "Tài": 2202,
      "ẩu": 2203,
      "tina": 2204,
      "suy": 2205,
      "Ara": 2206,
      "lắm": 2207,
      "đấu": 2208,
      "000D": 2209,
      "_x": 2210,
      "000D_": 2211,
      "_x000D_": 2212,
      "Tất": 2213,
      "mưa": 2214,
      "thuyết": 2215,
      "lá": 2216,
      "atar": 2217,
      "chụp": 2218,
      "USD": 2219,
      "phúc": 2220,
      "mái": 2221,
      "chợ": 2222,
      "ern": 2223,
      "đậm": 2224,
      "mai": 2225,
      "UB": 2226,
      "Champ": 2227,
      "Phương": 2228,
      "đội": 2229,
      "Bar": 2230,
      "cười": 2231,
      "quần": 2232,
      "ccine": 2233,
      "Đảng": 2234,
      "nu": 2235,
      "rơi": 2236,
      "ỏng": 2237,
      "Real": 2238,
      "đích": 2239,
      "tứ": 2240,
      "rid": 2241,
      "õi": 2242,
      "̉n": 2243,
      "VĐ": 2244,
      "hùng": 2245,
      "đoán": 2246,
      "TTCT": 2247,
      "Qatar": 2248,
      "khổ": 2249,
      "phê": 2250,
      "Sh": 2251,
      "TD": 2252,
      "UBND": 2253,
      "san": 2254,
      "bánh": 2255,
      "sung": 2256,
      "vê": 2257,
      "hạnh": 2258,
      "me": 2259,
      "tân": 2260,
      "buồn": 2261,
      "VID": 2262,
      "futsal": 2263,
      "lạ": 2264,
      "chữ": 2265,
      "PS": 2266,
      "ành": 2267,
      "cháu": 2268,
      "vaccine": 2269,
      "che": 2270,
      "bãi": 2271,
      "cậu": 2272,
      "dần": 2273,
      "Tấn": 2274,
      "lan": 2275,
      "tốc": 2276,
      "quên": 2277,
      "liệt": 2278,
      "Arabia": 2279,
      "bày": 2280,
      "tôn": 2281,
      "cỏ": 2282,
      "Argen": 2283,
      "sợ": 2284,
      "Champi": 2285,
      "Bảo": 2286,
      "mạc": 2287,
      "Argentina": 2288,
      "VP": 2289,
      "chết": 2290,
      "dạng": 2291,
      "đợt": 2292,
      "tránh": 2293,
      "Thời": 2294,
      "Champions": 2295,
      "60": 2296,
      "Pa": 2297,
      "ngại": 2298,
      "Đặng": 2299,
      "Inter": 2300,
      "199": 2301,
      "lứa": 2302,
      "ẳn": 2303,
      "iều": 2304,
      "Cần": 2305,
      "tươ": 2306,
      "COVID": 2307,
      "mặc": 2308,
      "tỏa": 2309,
      "thách": 2310,
      "lắng": 2311,
      "chỉnh": 2312,
      "gương": 2313,
      "yên": 2314,
      "ted": 2315,
      "Na": 2316,
      "Pau": 2317,
      "éo": 2318,
      "nhẹ": 2319,
      "cúp": 2320,
      "thoại": 2321,
      "úa": 2322,
      "els": 2323,
      "Bởi": 2324,
      "lầm": 2325,
      "trận": 2326,
      "đứa": 2327,
      "Trang": 2328,
      "Phong": 2329,
      "kg": 2330,
      "Thụy": 2331,
      "mắn": 2332,
      "Philippe": 2333,
      "Phát": 2334,
      "Madrid": 2335,
      "tồn": 2336,
      "xứng": 2337,
      "Tân": 2338,
      "tín": 2339,
      "Chi": 2340,
      "Thầy": 2341,
      "khoản": 2342,
      "na": 2343,
      "TDTT": 2344,
      "đẳng": 2345,
      "cũng": 2346,
      "cặp": 2347,
      "hẳn": 2348,
      "chốt": 2349,
      "thảo": 2350,
      "Jo": 2351,
      "vinh": 2352,
      "ầng": 2353,
      "):": 2354,
      "̣ch": 2355,
      "ei": 2356,
      "khen": 2357,
      "thoát": 2358,
      "sóng": 2359,
      "tặng": 2360,
      "ậc": 2361,
      "linh": 2362,
      "hoá": 2363,
      "nỗi": 2364,
      "Cúp": 2365,
      "này": 2366,
      "Uni": 2367,
      "bậc": 2368,
      "gốc": 2369,
      "tiện": 2370,
      "Chu": 2371,
      "VPF": 2372,
      "st": 2373,
      "mo": 2374,
      "So": 2375,
      "hề": 2376,
      "chấm": 2377,
      "ura": 2378,
      "U21": 2379,
      "Bồ": 2380,
      "tắc": 2381,
      "ngắm": 2382,
      "kia": 2383,
      "nạn": 2384,
      "xưa": 2385,
      "Đặc": 2386,
      "thiệu": 2387,
      "U17": 2388,
      "ủy": 2389,
      "ngủ": 2390,
      "Thông": 2391,
      "Ronal": 2392,
      "Tĩnh": 2393,
      "phó": 2394,
      "cản": 2395,
      "hại": 2396,
      "khá": 2397,
      "dữ": 2398,
      "vườn": 2399,
      "nửa": 2400,
      "siêu": 2401,
      "tầng": 2402,
      "èm": 2403,
      "San": 2404,
      "trúc": 2405,
      "ent": 2406,
      "hầu": 2407,
      "khắp": 2408,
      "đòi": 2409,
      "Ấn": 2410,
      "lửa": 2411,
      "thủ": 2412,
      "Ai": 2413,
      "bối": 2414,
      "Arsen": 2415,
      "nuôi": 2416,
      "Quân": 2417,
      "dọc": 2418,
      "SH": 2419,
      "khẩu": 2420,
      "iếng": 2421,
      "197": 2422,
      "bá": 2423,
      "phim": 2424,
      "iếp": 2425,
      "bơi": 2426,
      "Arsenal": 2427,
      "cuốn": 2428,
      "Bra": 2429,
      "ấc": 2430,
      "bè": 2431,
      "oo": 2432,
      "dõi": 2433,
      "treo": 2434,
      "tải": 2435,
      "gió": 2436,
      "be": 2437,
      "vắng": 2438,
      "ngon": 2439,
      "ard": 2440,
      "Pr": 2441,
      "TH": 2442,
      "ham": 2443,
      "ke": 2444,
      "Tổ": 2445,
      "Thiên": 2446,
      "mẽ": 2447,
      "Ronaldo": 2448,
      "Bo": 2449,
      "Độ": 2450,
      "Nga": 2451,
      "trăm": 2452,
      "ez": 2453,
      "ngàn": 2454,
      "SHB": 2455,
      "Chels": 2456,
      "Chelsea": 2457,
      "xấu": 2458,
      "ữ": 2459,
      "vời": 2460,
      "emi": 2461,
      "ỏa": 2462,
      "khoác": 2463,
      "tai": 2464,
      "Tim": 2465,
      "NG": 2466,
      "iệt": 2467,
      "ana": 2468,
      "lơ": 2469,
      "hẹn": 2470,
      "chiếm": 2471,
      "03": 2472,
      "II": 2473,
      "Mỗi": 2474,
      "kịch": 2475,
      "̣nh": 2476,
      "xo": 2477,
      "thuê": 2478,
      "lỡ": 2479,
      "Cô": 2480,
      "BTC": 2481,
      "chào": 2482,
      "trọn": 2483,
      "hát": 2484,
      "nét": 2485,
      "iati": 2486,
      "mối": 2487,
      "xong": 2488,
      "hãy": 2489,
      "hứng": 2490,
      "Ra": 2491,
      "để": 2492,
      "sian": 2493,
      "ài": 2494,
      "PSG": 2495,
      "vua": 2496,
      "Đinh": 2497,
      "tro": 2498,
      "Cụ": 2499,
      "kiểu": 2500,
      "Đài": 2501,
      "phi": 2502,
      "ền": 2503,
      "đoạt": 2504,
      "nắng": 2505,
      "đó": 2506,
      "đem": 2507,
      "võ": 2508,
      "bờ": 2509,
      "lay": 2510,
      "Su": 2511,
      "tờ": 2512,
      "ệt": 2513,
      "giấy": 2514,
      "ino": 2515,
      "Ri": 2516,
      "tù": 2517,
      "Asian": 2518,
      "01": 2519,
      "ớt": 2520,
      "giàu": 2521,
      "chặt": 2522,
      "VH": 2523,
      "80": 2524,
      "United": 2525,
      "lạnh": 2526,
      "thờ": 2527,
      "Cả": 2528,
      "chục": 2529,
      "tiêm": 2530,
      "ff": 2531,
      "Lý": 2532,
      "áy": 2533,
      "hu": 2534,
      "thở": 2535,
      "Kiati": 2536,
      "U16": 2537,
      "̣p": 2538,
      "nhượng": 2539,
      "The": 2540,
      "ber": 2541,
      "sô": 2542,
      "Thống": 2543,
      "chừng": 2544,
      "àng": 2545,
      "nhiều": 2546,
      "nắm": 2547,
      "bù": 2548,
      "Thơ": 2549,
      "Ky": 2550,
      "chóng": 2551,
      "đáo": 2552,
      "dựa": 2553,
      "Đối": 2554,
      "bây": 2555,
      "đột": 2556,
      "Thực": 2557,
      "nhiêu": 2558,
      "khuôn": 2559,
      "De": 2560,
      "già": 2561,
      "về": 2562,
      "Khu": 2563,
      "pa": 2564,
      "đầu": 2565,
      "kim": 2566,
      "Miura": 2567,
      "lại": 2568,
      "̀a": 2569,
      "vươ": 2570,
      "ry": 2571,
      "ão": 2572,
      "Tùng": 2573,
      "xương": 2574,
      "pool": 2575,
      "Tiên": 2576,
      "euro": 2577,
      "trồng": 2578,
      "phổ": 2579,
      "zil": 2580,
      "trào": 2581,
      "ví": 2582,
      "Võ": 2583,
      "Liver": 2584,
      "Núi": 2585,
      "Liverpool": 2586,
      "Phút": 2587,
      "miễn": 2588,
      "ul": 2589,
      "cả": 2590,
      "Brun": 2591,
      "DL": 2592,
      "cơm": 2593,
      "giỏi": 2594,
      "vào": 2595,
      "nghèo": 2596,
      "chỉ": 2597,
      "Hưng": 2598,
      "quang": 2599,
      "TV": 2600,
      "ge": 2601,
      "09": 2602,
      "khép": 2603,
      "tim": 2604,
      "mãi": 2605,
      "tươi": 2606,
      "từ": 2607,
      "́nh": 2608,
      "ũi": 2609,
      "khích": 2610,
      "bốn": 2611,
      "trú": 2612,
      "Báo": 2613,
      "hứa": 2614,
      "Brazil": 2615,
      "Tàu": 2616,
      "ật": 2617,
      "cà": 2618,
      "Mới": 2619,
      "Tú": 2620,
      "Được": 2621,
      "est": 2622,
      "ten": 2623,
      "ngũ": 2624,
      "Gu": 2625,
      "Hag": 2626,
      "tụ": 2627,
      "35": 2628,
      "nguyện": 2629,
      "trống": 2630,
      "vợt": 2631,
      "ngữ": 2632,
      "quận": 2633,
      "tạp": 2634,
      "̀m": 2635,
      "thủy": 2636,
      "Lương": 2637,
      "kênh": 2638,
      "70": 2639,
      ");": 2640,
      "dụ": 2641,
      "Eri": 2642,
      "HN": 2643,
      "kẻ": 2644,
      "trích": 2645,
      "giải": 2646,
      "khảo": 2647,
      "thoải": 2648,
      "Tu": 2649,
      "ppe": 2650,
      "nhì": 2651,
      "phải": 2652,
      "phấn": 2653,
      "Cái": 2654,
      "Cho": 2655,
      "und": 2656,
      "cơn": 2657,
      "tảng": 2658,
      "Sân": 2659,
      "ức": 2660,
      "ngã": 2661,
      "Sy": 2662,
      "Giám": 2663,
      "tiểu": 2664,
      "Đỗ": 2665,
      "lí": 2666,
      "bốc": 2667,
      "mẫu": 2668,
      "trại": 2669,
      "Chương": 2670,
      "Mba": 2671,
      "Am": 2672,
      "bó": 2673,
      "ngân": 2674,
      "bek": 2675,
      "hoà": 2676,
      "bữa": 2677,
      "sóc": 2678,
      "phán": 2679,
      "Kỳ": 2680,
      "trưng": 2681,
      "Mbappe": 2682,
      "can": 2683,
      "khát": 2684,
      "ĐB": 2685,
      "dương": 2686,
      "h30": 2687,
      "́p": 2688,
      "đỡ": 2689,
      "giây": 2690,
      "kèm": 2691,
      "Cao": 2692,
      "khủng": 2693,
      "kích": 2694,
      "Bay": 2695,
      "Sông": 2696,
      "mát": 2697,
      "ẫn": 2698,
      "Pe": 2699,
      "AR": 2700,
      "sửa": 2701,
      "chúc": 2702,
      "Lễ": 2703,
      "ắng": 2704,
      "CH": 2705,
      "ci": 2706,
      "hoàng": 2707,
      "đừng": 2708,
      "pen": 2709,
      "ốc": 2710,
      "nổ": 2711,
      "nhất": 2712,
      "500": 2713,
      "ênh": 2714,
      "phu": 2715,
      "Cuộc": 2716,
      "thịt": 2717,
      "lọt": 2718,
      "giảng": 2719,
      "khóa": 2720,
      "HCĐ": 2721,
      "súng": 2722,
      "kiên": 2723,
      "Uz": 2724,
      "than": 2725,
      "ala": 2726,
      "đức": 2727,
      "tre": 2728,
      "song": 2729,
      "ane": 2730,
      "HCB": 2731,
      "chùa": 2732,
      "bạc": 2733,
      "ấn": 2734,
      "thành": 2735,
      "Premi": 2736,
      "ealand": 2737,
      "Quế": 2738,
      "Ca": 2739,
      "CA": 2740,
      "lành": 2741,
      "Premier": 2742,
      "chối": 2743,
      "đạp": 2744,
      "iện": 2745,
      "05": 2746,
      "ngăn": 2747,
      "Jord": 2748,
      "Nhìn": 2749,
      "hoang": 2750,
      "ển": 2751,
      "2015": 2752,
      "Uzbek": 2753,
      "Vào": 2754,
      "Zealand": 2755,
      "Thật": 2756,
      "Uzbekistan": 2757,
      "ĐTQG": 2758,
      "Ju": 2759,
      "Spor": 2760,
      "Vậy": 2761,
      "Yên": 2762,
      "đám": 2763,
      "tion": 2764,
      "sẽ": 2765,
      "xung": 2766,
      "Jordan": 2767,
      "Bài": 2768,
      "ven": 2769,
      "Bác": 2770,
      "Thậm": 2771,
      "ali": 2772,
      "quà": 2773,
      "Huế": 2774,
      "họ": 2775,
      "liền": 2776,
      "vươn": 2777,
      "Vương": 2778,
      "olf": 2779,
      "sạch": 2780,
      "bền": 2781,
      "ngôn": 2782,
      "thổi": 2783,
      "2024": 2784,
      "máu": 2785,
      "Cùng": 2786,
      "điền": 2787,
      "kính": 2788,
      "đập": 2789,
      "Bảng": 2790,
      "02": 2791,
      "ýt": 2792,
      "Dự": 2793,
      "giấc": 2794,
      "Bạn": 2795,
      "còi": 2796,
      "đuổi": 2797,
      "cam": 2798,
      "biện": 2799,
      "trưa": 2800,
      "bào": 2801,
      "Nhân": 2802,
      "ik": 2803,
      "hiến": 2804,
      "Khoa": 2805,
      "Câu": 2806,
      "ềm": 2807,
      "chậm": 2808,
      "Xem": 2809,
      "Barca": 2810,
      "ập": 2811,
      "Lúc": 2812,
      "Sĩ": 2813,
      "gấp": 2814,
      "thỏa": 2815,
      "Điểm": 2816,
      "Erik": 2817,
      "Paris": 2818,
      "thí": 2819,
      "land": 2820,
      "đen": 2821,
      "Si": 2822,
      "Vân": 2823,
      "Trưởng": 2824,
      "Phúc": 2825,
      "trấn": 2826,
      "Chưa": 2827,
      "sự": 2828,
      "dám": 2829,
      "Ảnh": 2830,
      "Po": 2831,
      "Đẫy": 2832,
      "hoảng": 2833,
      "Mu": 2834,
      "chiếu": 2835,
      "vong": 2836,
      "Chinh": 2837,
      "Bàn": 2838,
      "ngưỡng": 2839,
      "cống": 2840,
      "ish": 2841,
      "tiềm": 2842,
      "Em": 2843,
      "số": 2844,
      "ort": 2845,
      "dường": 2846,
      "ờ": 2847,
      "iệu": 2848,
      "thập": 2849,
      "́m": 2850,
      "trước": 2851,
      "ka": 2852,
      "mại": 2853,
      "one": 2854,
      "Giáo": 2855,
      "ượn": 2856,
      "ano": 2857,
      "thế": 2858,
      "Vĩnh": 2859,
      "it": 2860,
      "né": 2861,
      "chữa": 2862,
      "cắt": 2863,
      "nhịp": 2864,
      "11m": 2865,
      "Lam": 2866,
      "hồn": 2867,
      "ona": 2868,
      "còn": 2869,
      "Sáng": 2870,
      "Ja": 2871,
      "phận": 2872,
      "ich": 2873,
      "lip": 2874,
      "chàng": 2875,
      "Iran": 2876,
      "đấy": 2877,
      "ris": 2878,
      "sak": 2879,
      "top": 2880,
      "Chiều": 2881,
      "Mil": 2882,
      "der": 2883,
      "vả": 2884,
      "ngạc": 2885,
      "độ": 2886,
      "thuế": 2887,
      "Har": 2888,
      "khuyến": 2889,
      "lặng": 2890,
      "mật": 2891,
      "xuân": 2892,
      "trừ": 2893,
      "Thi": 2894,
      "chinh": 2895,
      "ụt": 2896,
      "cầu": 2897,
      "gà": 2898,
      "Cơ": 2899,
      "Ngô": 2900,
      "kêu": 2901,
      "He": 2902,
      "Ira": 2903,
      "XH": 2904,
      "thôn": 2905,
      "ào": 2906,
      "Shin": 2907,
      "kín": 2908,
      "Cách": 2909,
      "kháng": 2910,
      "lái": 2911,
      "Hoá": 2912,
      "gỗ": 2913,
      "bí": 2914,
      "hôn": 2915,
      "cãi": 2916,
      "sôi": 2917,
      "Trương": 2918,
      "Cường": 2919,
      "rèn": 2920,
      "Timor": 2921,
      "vất": 2922,
      "!!": 2923,
      "thăng": 2924,
      "Iraq": 2925,
      "Da": 2926,
      "ghé": 2927,
      "Hôm": 2928,
      "Kiên": 2929,
      "tệ": 2930,
      "Rất": 2931,
      "iến": 2932,
      "tường": 2933,
      "ngơi": 2934,
      "Phải": 2935,
      "Hy": 2936,
      "Loan": 2937,
      "ết": 2938,
      "Siêu": 2939,
      "ĩa": 2940,
      "U18": 2941,
      "hiếm": 2942,
      "ester": 2943,
      "trội": 2944,
      "Quan": 2945,
      "ĐK": 2946,
      "thải": 2947,
      "Học": 2948,
      "ướt": 2949,
      "ường": 2950,
      "VHTT": 2951,
      "tròn": 2952,
      "Ni": 2953,
      "dây": 2954,
      "Triều": 2955,
      "suk": 2956,
      "vỡ": 2957,
      "trương": 2958,
      "tội": 2959,
      "Thứ": 2960,
      "ãnh": 2961,
      "nho": 2962,
      "VAR": 2963,
      "Hạ": 2964,
      "ống": 2965,
      "Qua": 2966,
      "hạt": 2967,
      "đèn": 2968,
      "đu": 2969,
      "Trẻ": 2970,
      "ủi": 2971,
      "Fa": 2972,
      "rực": 2973,
      "sót": 2974,
      "thiểu": 2975,
      "thắng": 2976,
      "luân": 2977,
      "19h": 2978,
      "Kiatisuk": 2979,
      "lũ": 2980,
      "rau": 2981,
      "36": 2982,
      "nở": 2983,
      "Chẳng": 2984,
      "vĩ": 2985,
      "dio": 2986,
      "gói": 2987,
      "vic": 2988,
      "Me": 2989,
      "Tình": 2990,
      "pe": 2991,
      "hồng": 2992,
      "ninh": 2993,
      "ct": 2994,
      "ngọt": 2995,
      "cai": 2996,
      "Mùa": 2997,
      "dậy": 2998,
      "On": 2999,
      "Se": 3000,
      "dày": 3001,
      "''),": 3002,
      "Vàng": 3003,
      "đàm": 3004,
      "Ben": 3005,
      "id": 3006,
      "phức": 3007,
      "Mor": 3008,
      "van": 3009,
      "ịa": 3010,
      "khối": 3011,
      "Tae": 3012,
      "No": 3013,
      "vẹn": 3014,
      "thon": 3015,
      "hải": 3016,
      "rượ": 3017,
      "Là": 3018,
      "Đáng": 3019,
      "%.": 3020,
      "nấu": 3021,
      "vu": 3022,
      "55": 3023,
      "thận": 3024,
      "Viện": 3025,
      "bế": 3026,
      "Quả": 3027,
      "gan": 3028,
      "2014": 3029,
      "ĐH": 3030,
      "ess": 3031,
      "Nữ": 3032,
      "̃i": 3033,
      "Thịnh": 3034,
      "lúa": 3035,
      "̣o": 3036,
      "thủng": 3037,
      "tốn": 3038,
      "iệc": 3039,
      "33": 3040,
      "duyệt": 3041,
      "tả": 3042,
      "ari": 3043,
      "196": 3044,
      "Giờ": 3045,
      "sứ": 3046,
      "Bayern": 3047,
      "mệnh": 3048,
      "ngợi": 3049,
      "thù": 3050,
      "Asia": 3051,
      "dính": 3052,
      "ổi": 3053,
      "loài": 3054,
      "Ủy": 3055,
      "tàng": 3056,
      "tòa": 3057,
      "hô": 3058,
      "Euro": 3059,
      "Tra": 3060,
      "ái": 3061,
      "Sai": 3062,
      "Lee": 3063,
      "Danh": 3064,
      "Lần": 3065,
      "nhảy": 3066,
      "Thọ": 3067,
      "04": 3068,
      "Quy": 3069,
      "ngọn": 3070,
      "Hoà": 3071,
      "mệt": 3072,
      "sắm": 3073,
      "ami": 3074,
      "ến": 3075,
      "ina": 3076,
      "LS": 3077,
      "Chị": 3078,
      "Kinh": 3079,
      "xà": 3080,
      "rượu": 3081,
      ".”": 3082,
      "trông": 3083,
      "Bầu": 3084,
      "lâm": 3085,
      "Cuối": 3086,
      "đồi": 3087,
      "we": 3088,
      "nợ": 3089,
      "Bu": 3090,
      "lươ": 3091,
      "chặng": 3092,
      "lăn": 3093,
      "cùng": 3094,
      "chánh": 3095,
      "ê": 3096,
      "PT": 3097,
      "dị": 3098,
      "tràn": 3099,
      "video": 3100,
      "bếp": 3101,
      "VHTTDL": 3102,
      "lính": 3103,
      "họa": 3104,
      "Phật": 3105,
      "chuỗi": 3106,
      "PV": 3107,
      "fi": 3108,
      "ngày": 3109,
      "fan": 3110,
      "nghìn": 3111,
      "ko": 3112,
      "ối": 3113,
      "trúng": 3114,
      "đồng": 3115,
      "za": 3116,
      "phú": 3117,
      "NH": 3118,
      "Tuổi": 3119,
      "tha": 3120,
      "vang": 3121,
      "hãng": 3122,
      "tuyết": 3123,
      "khúc": 3124,
      "pháo": 3125,
      "Ka": 3126,
      "ọa": 3127,
      "rác": 3128,
      "ộc": 3129,
      "tte": 3130,
      "khứ": 3131,
      "Thuận": 3132,
      "Can": 3133,
      "mây": 3134,
      "thiệt": 3135,
      "leo": 3136,
      "Yong": 3137,
      "Hãy": 3138,
      "mũi": 3139,
      "túc": 3140,
      "34": 3141,
      "400": 3142,
      "xinh": 3143,
      "chuy": 3144,
      "Biên": 3145,
      "non": 3146,
      "bắn": 3147,
      "Luật": 3148,
      "FL": 3149,
      "nham": 3150,
      "thảm": 3151,
      "ếp": 3152,
      "chặn": 3153,
      "Fi": 3154,
      "nhà": 3155,
      "Hương": 3156,
      "VTV": 3157,
      "xi": 3158,
      "rỡ": 3159,
      "ấy": 3160,
      "Nó": 3161,
      "Ngoại": 3162,
      "thụ": 3163,
      "duyên": 3164,
      "ASEA": 3165,
      "ASEAN": 3166,
      "bồi": 3167,
      "Mặc": 3168,
      "ẹt": 3169,
      "qui": 3170,
      "Đánh": 3171,
      "ada": 3172,
      "won": 3173,
      "phiên": 3174,
      "bị": 3175,
      "cel": 3176,
      "Đầu": 3177,
      "bạo": 3178,
      "om": 3179,
      "xâm": 3180,
      "ớp": 3181,
      "gánh": 3182,
      "chảy": 3183,
      "ngư": 3184,
      "Be": 3185,
      "đam": 3186,
      "rai": 3187,
      "Hơn": 3188,
      "lưng": 3189,
      "việc": 3190,
      "Nghiêm": 3191,
      "300": 3192,
      "yo": 3193,
      "muộn": 3194,
      "bùng": 3195,
      "dồn": 3196,
      "khóc": 3197,
      "Yến": 3198,
      "Thảo": 3199,
      "tĩnh": 3200,
      "Tham": 3201,
      "Milan": 3202,
      "thang": 3203,
      "ện": 3204,
      "Quý": 3205,
      "sánh": 3206,
      "án": 3207,
      "phỏng": 3208,
      "Toky": 3209,
      "Mọi": 3210,
      "Hoài": 3211,
      "lội": 3212,
      "rào": 3213,
      "sh": 3214,
      "Tokyo": 3215,
      "era": 3216,
      "miếng": 3217,
      "nêu": 3218,
      "Việt": 3219,
      "Song": 3220,
      "TS": 3221,
      "48": 3222,
      "Hành": 3223,
      "Tâm": 3224,
      "37": 3225,
      "line": 3226,
      "Đi": 3227,
      "ực": 3228,
      "giãn": 3229,
      "FLC": 3230,
      "for": 3231,
      "Net": 3232,
      "Tam": 3233,
      "nề": 3234,
      "wi": 3235,
      "198": 3236,
      "Vũng": 3237,
      "ass": 3238,
      "Totte": 3239,
      "Hình": 3240,
      "dĩ": 3241,
      "Bằng": 3242,
      "Lạt": 3243,
      "chiêu": 3244,
      "túi": 3245,
      "Chuyện": 3246,
      "SI": 3247,
      "điển": 3248,
      "Tottenham": 3249,
      "xóm": 3250,
      "đà": 3251,
      "dri": 3252,
      "chở": 3253,
      "Guar": 3254,
      "Mục": 3255,
      "mực": 3256,
      "ngập": 3257,
      "phường": 3258,
      "vội": 3259,
      "38": 3260,
      "king": 3261,
      "kết": 3262,
      "khô": 3263,
      "Bi": 3264,
      "GS": 3265,
      "Gar": 3266,
      "Vo": 3267,
      "Dưới": 3268,
      "dàn": 3269,
      "sữa": 3270,
      "ùm": 3271,
      "all": 3272,
      "mỏi": 3273,
      "U15": 3274,
      "thẩm": 3275,
      "Tối": 3276,
      "Cập": 3277,
      "Thường": 3278,
      "huyền": 3279,
      "mộng": 3280,
      "ằng": 3281,
      "h00": 3282,
      "cát": 3283,
      "hằng": 3284,
      "up": 3285,
      "Asiad": 3286,
      "điể": 3287,
      "Ser": 3288,
      "úy": 3289,
      "trầm": 3290,
      "điểm": 3291,
      "chứa": 3292,
      "bến": 3293,
      "đãi": 3294,
      "Nghỉ": 3295,
      "săn": 3296,
      "Rồi": 3297,
      "áng": 3298,
      "VietNam": 3299,
      "tuyển": 3300,
      "rổ": 3301,
      "ria": 3302,
      "̉nh": 3303,
      "cháy": 3304,
      "Lĩnh": 3305,
      "Tập": 3306,
      "sỹ": 3307,
      "́ch": 3308,
      "truy": 3309,
      "Số": 3310,
      "ngoái": 3311,
      "Les": 3312,
      "hang": 3313,
      "os": 3314,
      "sốt": 3315,
      "Car": 3316,
      "Tư": 3317,
      "oc": 3318,
      "điệu": 3319,
      "CN": 3320,
      "Sang": 3321,
      "St": 3322,
      "Mẹ": 3323,
      "VietNamNet": 3324,
      "res": 3325,
      "tia": 3326,
      "khoảnh": 3327,
      "tắm": 3328,
      "It": 3329,
      "Re": 3330,
      "Mun": 3331,
      "thượng": 3332,
      "lệnh": 3333,
      "hảo": 3334,
      "46": 3335,
      "bò": 3336,
      "ỗng": 3337,
      "ngừng": 3338,
      "mà": 3339,
      "chim": 3340,
      "rối": 3341,
      "vẫn": 3342,
      "Giá": 3343,
      "Hong": 3344,
      "trôi": 3345,
      "Tour": 3346,
      "tật": 3347,
      "Nish": 3348,
      "̣̂": 3349,
      "hẹp": 3350,
      "nuối": 3351,
      "Cổ": 3352,
      "thơm": 3353,
      "ùy": 3354,
      "vì": 3355,
      "Hồi": 3356,
      "bàn": 3357,
      "nữ": 3358,
      "Kiều": 3359,
      "tùy": 3360,
      "Nishino": 3361,
      "đúp": 3362,
      "Thương": 3363,
      "ơ": 3364,
      "thời": 3365,
      "cưới": 3366,
      "ặt": 3367,
      "Sam": 3368,
      "Vụ": 3369,
      "LĐB": 3370,
      "Vấn": 3371,
      "đảng": 3372,
      "BXH": 3373,
      "lla": 3374,
      "lùi": 3375,
      "ắc": 3376,
      "lãng": 3377,
      "dâng": 3378,
      "Futsal": 3379,
      "bám": 3380,
      "nghiêng": 3381,
      "Chia": 3382,
      "xoay": 3383,
      "Leste": 3384,
      "mềm": 3385,
      "eng": 3386,
      "Diễn": 3387,
      "bận": 3388,
      "nhứt": 3389,
      "́a": 3390,
      "mỹ": 3391,
      "chê": 3392,
      "54": 3393,
      "canh": 3394,
      "mãn": 3395,
      "150": 3396,
      "biê": 3397,
      "ném": 3398,
      "ya": 3399,
      "Vietnam": 3400,
      "Làm": 3401,
      "gạo": 3402,
      "Đã": 3403,
      "Bruno": 3404,
      "aland": 3405,
      "ick": 3406,
      "ley": 3407,
      "dốc": 3408,
      "ie": 3409,
      "ồi": 3410,
      "phá": 3411,
      "sta": 3412,
      "thả": 3413,
      "Gong": 3414,
      "hủy": 3415,
      "lấn": 3416,
      "chẽ": 3417,
      "mùa": 3418,
      "Tiếp": 3419,
      "SVĐ": 3420,
      "huyết": 3421,
      "lần": 3422,
      "mẻ": 3423,
      "Đa": 3424,
      "diola": 3425,
      "Bỉ": 3426,
      "Điển": 3427,
      "thổ": 3428,
      "tháp": 3429,
      "Guardiola": 3430,
      "Kong": 3431,
      "mưu": 3432,
      "check": 3433,
      "vir": 3434,
      "chín": 3435,
      "Thủy": 3436,
      "mạo": 3437,
      "ắk": 3438,
      "cấu": 3439,
      "ằn": 3440,
      "ruộng": 3441,
      "đệ": 3442,
      "And": 3443,
      "giới": 3444,
      "39": 3445,
      "Truyền": 3446,
      "Munich": 3447,
      "52": 3448,
      "Tháp": 3449,
      "ấp": 3450,
      "lệch": 3451,
      "ĐKVĐ": 3452,
      "by": 3453,
      "lang": 3454,
      "tạt": 3455,
      "đe": 3456,
      "CAHN": 3457,
      "fe": 3458,
      "bang": 3459,
      "làm": 3460,
      "%,": 3461,
      "Go": 3462,
      "ram": 3463,
      "đế": 3464,
      "42": 3465,
      "ger": 3466,
      "Cờ": 3467,
      "loa": 3468,
      "Cũ": 3469,
      "ễu": 3470,
      "iệng": 3471,
      "khao": 3472,
      "chính": 3473,
      "Haaland": 3474,
      "chester": 3475,
      "bai": 3476,
      "fa": 3477,
      "đeo": 3478,
      "đắt": 3479,
      "Aki": 3480,
      "Oman": 3481,
      "tán": 3482,
      "việt": 3483,
      "ford": 3484,
      "Manchester": 3485,
      "den": 3486,
      "ice": 3487,
      "cương": 3488,
      "Phước": 3489,
      "2012": 3490,
      "dự": 3491,
      "vin": 3492,
      "Gần": 3493,
      "um": 3494,
      "Thay": 3495,
      "lồ": 3496,
      "sốc": 3497,
      "thằng": 3498,
      "dội": 3499,
      "ja": 3500,
      "Sun": 3501,
      "hội": 3502,
      "vương": 3503,
      "Đo": 3504,
      "trán": 3505,
      "mùi": 3506,
      "ork": 3507,
      "bổng": 3508,
      "play": 3509,
      "Nhóm": 3510,
      "Akira": 3511,
      "Mas": 3512,
      "mượn": 3513,
      "suối": 3514,
      "Đường": 3515,
      "tổn": 3516,
      "quãng": 3517,
      "thuần": 3518,
      "Sinh": 3519,
      "dinh": 3520,
      "khổng": 3521,
      "rẻ": 3522,
      "Nghĩa": 3523,
      "Ste": 3524,
      "iệp": 3525,
      "he": 3526,
      "Cam": 3527,
      "mảnh": 3528,
      "miệng": 3529,
      "Phần": 3530,
      "Pep": 3531,
      "trùng": 3532,
      "hòn": 3533,
      "Tháng": 3534,
      "2010": 3535,
      "̉m": 3536,
      "quỹ": 3537,
      "chủng": 3538,
      "Cung": 3539,
      "cốt": 3540,
      "tết": 3541,
      "hoãn": 3542,
      "Play": 3543,
      "ệ": 3544,
      "nhường": 3545,
      "Syria": 3546,
      "Xin": 3547,
      "58": 3548,
      "vel": 3549,
      "Brunei": 3550,
      "As": 3551,
      "cổng": 3552,
      "ựu": 3553,
      "ves": 3554,
      "điệp": 3555,
      "tại": 3556,
      "Cứ": 3557,
      "dã": 3558,
      "ani": 3559,
      "Sỹ": 3560,
      "tị": 3561,
      "đốt": 3562,
      "ero": 3563,
      "gy": 3564,
      "Thùy": 3565,
      "Harry": 3566,
      "56": 3567,
      "57": 3568,
      "Mek": 3569,
      "Tuyên": 3570,
      "trở": 3571,
      "Buổi": 3572,
      "cắm": 3573,
      "lữ": 3574,
      "chiêm": 3575,
      "lò": 3576,
      "mốc": 3577,
      "kỳ": 3578,
      "oko": 3579,
      "bão": 3580,
      "2026": 3581,
      "dáng": 3582,
      "hình": 3583,
      "Bang": 3584,
      "bút": 3585,
      "CP": 3586,
      "hiện": 3587,
      "Mekong": 3588,
      "ộp": 3589,
      "khéo": 3590,
      "ác": 3591,
      "Hiếu": 3592,
      "ớn": 3593,
      "học": 3594,
      "lão": 3595,
      "net": 3596,
      "ers": 3597,
      "Bí": 3598,
      "que": 3599,
      "quốc": 3600,
      "Cộng": 3601,
      "lor": 3602,
      "Ko": 3603,
      "Nghị": 3604,
      "Martin": 3605,
      "BHL": 3606,
      "định": 3607,
      "Cục": 3608,
      "rathon": 3609,
      "huynh": 3610,
      "Ligue": 3611,
      "75": 3612,
      "rất": 3613,
      "làn": 3614,
      "vòng": 3615,
      "PVF": 3616,
      "Ham": 3617,
      "vẽ": 3618,
      "khách": 3619,
      "44": 3620,
      "tuân": 3621,
      "khâu": 3622,
      "lin": 3623,
      "say": 3624,
      "chót": 3625,
      "18h": 3626,
      "ứng": 3627,
      "thói": 3628,
      "Ab": 3629,
      "giá": 3630,
      "Thai": 3631,
      "Lộc": 3632,
      "cia": 3633,
      "khuyên": 3634,
      "trà": 3635,
      "men": 3636,
      "giật": 3637,
      "53": 3638,
      "Khách": 3639,
      "Ple": 3640,
      "mạch": 3641,
      "tắt": 3642,
      "tiếp": 3643,
      "ght": 3644,
      "đối": 3645,
      "Ku": 3646,
      "Ti": 3647,
      "Thư": 3648,
      "LĐBĐ": 3649,
      "Dân": 3650,
      "Vị": 3651,
      "ắt": 3652,
      "ếu": 3653,
      "Yo": 3654,
      "chiến": 3655,
      "1975": 3656,
      "iku": 3657,
      "Tính": 3658,
      "golf": 3659,
      "Ale": 3660,
      "mờ": 3661,
      "41": 3662,
      "nhạt": 3663,
      "cọ": 3664,
      "Fran": 3665,
      "Ghi": 3666,
      "Pleiku": 3667,
      "ash": 3668,
      "ney": 3669,
      "Mĩ": 3670,
      "ll": 3671,
      "chìm": 3672,
      "Hiền": 3673,
      "triệu": 3674,
      "Quỷ": 3675,
      "lướt": 3676,
      "bom": 3677,
      "virus": 3678,
      "Trà": 3679,
      "GD": 3680,
      "Viên": 3681,
      "giận": 3682,
      "Nhã": 3683,
      "2013": 3684,
      "Miami": 3685,
      "Riêng": 3686,
      "Đúng": 3687,
      "sổ": 3688,
      "wa": 3689,
      "̛ơ": 3690,
      "Cro": 3691,
      "ill": 3692,
      "Tương": 3693,
      "Đan": 3694,
      "ting": 3695,
      "Nu": 3696,
      "nướng": 3697,
      "pro": 3698,
      "off": 3699,
      "Cựu": 3700,
      "tóc": 3701,
      "ẫm": 3702,
      "'')": 3703,
      "Chuẩn": 3704,
      "đồn": 3705,
      "ửu": 3706,
      "dọn": 3707,
      "dãy": 3708,
      "hái": 3709,
      "đành": 3710,
      "49": 3711,
      "Pol": 3712,
      "wan": 3713,
      "ìa": 3714,
      "Toản": 3715,
      "Wal": 3716,
      "inho": 3717,
      "47": 3718,
      "tru": 3719,
      "lặn": 3720,
      "nước": 3721,
      "cách": 3722,
      "đều": 3723,
      "65": 3724,
      "Vua": 3725,
      "gãy": 3726,
      "mến": 3727,
      "ậy": 3728,
      "Mặt": 3729,
      "Hằng": 3730,
      "cẩn": 3731,
      "ía": 3732,
      "Đô": 3733,
      "giành": 3734,
      "elli": 3735,
      "Hi": 3736,
      "tráng": 3737,
      "loạn": 3738,
      "AD": 3739,
      "bớt": 3740,
      "sắt": 3741,
      "ván": 3742,
      "17h": 3743,
      "mới": 3744,
      "tiệc": 3745,
      "hỏng": 3746,
      "tạ": 3747,
      "ướp": 3748,
      "Kyun": 3749,
      "Lãnh": 3750,
      "bê": 3751,
      "Nông": 3752,
      "mặn": 3753,
      "VĐQG": 3754,
      "43": 3755,
      "Sao": 3756,
      "lẻ": 3757,
      "sho": 3758,
      "tiền": 3759,
      "mét": 3760,
      "’.": 3761,
      "51": 3762,
      "hn": 3763,
      "Nơi": 3764,
      "Thiền": 3765,
      "tic": 3766,
      "toả": 3767,
      "đại": 3768,
      "Oh": 3769,
      "bỗng": 3770,
      "chai": 3771,
      "cứng": 3772,
      "tập": 3773,
      "Kể": 3774,
      "giấu": 3775,
      "ene": 3776,
      "cỡ": 3777,
      "lấp": 3778,
      "rủi": 3779,
      "giày": 3780,
      "ell": 3781,
      "suýt": 3782,
      "Sports": 3783,
      "Pro": 3784,
      "dầu": 3785,
      "thong": 3786,
      "Tô": 3787,
      "đậu": 3788,
      "ama": 3789,
      "zi": 3790,
      "2008": 3791,
      "Tan": 3792,
      "bề": 3793,
      "lưỡng": 3794,
      "Bước": 3795,
      "khe": 3796,
      "Mon": 3797,
      "khác": 3798,
      "Bất": 3799,
      "nhàng": 3800,
      "thoảng": 3801,
      "ood": 3802,
      "Tỉ": 3803,
      "Vin": 3804,
      "hàng": 3805,
      "2011": 3806,
      "Gr": 3807,
      "Hen": 3808,
      "chăng": 3809,
      "khái": 3810,
      "khuyết": 3811,
      "giò": 3812,
      "120": 3813,
      "xát": 3814,
      "eren": 3815,
      "Nhờ": 3816,
      "Pha": 3817,
      "đụng": 3818,
      "Tuyết": 3819,
      "Tự": 3820,
      "Điền": 3821,
      "....": 3822,
      "dao": 3823,
      "tti": 3824,
      "tài": 3825,
      "Sport": 3826,
      "lông": 3827,
      "mọc": 3828,
      "Khang": 3829,
      "Polking": 3830,
      "nào": 3831,
      "Tho": 3832,
      "iễn": 3833,
      "bur": 3834,
      "liều": 3835,
      "vạn": 3836,
      "com": 3837,
      "Rịa": 3838,
      "stan": 3839,
      "Ali": 3840,
      "xả": 3841,
      "Cẩm": 3842,
      "Mour": 3843,
      "Air": 3844,
      "Alex": 3845,
      "Af": 3846,
      "Cai": 3847,
      "Hiển": 3848,
      "nhận": 3849,
      "Mourinho": 3850,
      "dy": 3851,
      "hụt": 3852,
      "Ánh": 3853,
      "Ngân": 3854,
      "bơ": 3855,
      "mì": 3856,
      "rạng": 3857,
      "].": 3858,
      "hơ": 3859,
      "ele": 3860,
      "Bệnh": 3861,
      "̉o": 3862,
      "rồi": 3863,
      "ruột": 3864,
      "Biển": 3865,
      "kì": 3866,
      "lề": 3867,
      "mer": 3868,
      "lộn": 3869,
      "Te": 3870,
      "đệm": 3871,
      "tt": 3872,
      "Canada": 3873,
      "Ber": 3874,
      "Per": 3875,
      "TI": 3876,
      "tựa": 3877,
      "Ke": 3878,
      "ụi": 3879,
      "ras": 3880,
      "soạn": 3881,
      "59": 3882,
      "cất": 3883,
      "kí": 3884,
      "ngoạn": 3885,
      "hưu": 3886,
      "nụ": 3887,
      "nha": 3888,
      "chè": 3889,
      "pho": 3890,
      "quá": 3891,
      "tí": 3892,
      "Điện": 3893,
      "toàn": 3894,
      "động": 3895,
      "ưỡi": 3896,
      "Nước": 3897,
      "ặc": 3898,
      "gon": 3899,
      "léo": 3900,
      "Dung": 3901,
      "Tờ": 3902,
      "Trí": 3903,
      "Ney": 3904,
      "Mình": 3905,
      "ún": 3906,
      "Đảo": 3907,
      "Liga": 3908,
      "Bur": 3909,
      "Neymar": 3910,
      "Bích": 3911,
      "Mà": 3912,
      "Thượng": 3913,
      "địch": 3914,
      "hư": 3915,
      "gọn_x000D_": 3916,
      "phẫu": 3917,
      "cuộc": 3918,
      "Je": 3919,
      "hợp": 3920,
      "EU": 3921,
      "Kane": 3922,
      "atia": 3923,
      "gác": 3924,
      "mạnh": 3925,
      "Dĩ": 3926,
      "vậy": 3927,
      "ươi": 3928,
      "Cas": 3929,
      "Lao": 3930,
      "Nai": 3931,
      "bọn": 3932,
      "Đề": 3933,
      "heo": 3934,
      "800": 3935,
      "sáu": 3936,
      "tá": 3937,
      "Trì": 3938,
      "Huyền": 3939,
      "cay": 3940,
      "gạch": 3941,
      "Croatia": 3942,
      "2003": 3943,
      "gợi": 3944,
      "lô": 3945,
      "mund": 3946,
      "ure": 3947,
      "aka": 3948,
      "Lợi": 3949,
      "Vô": 3950,
      "bộ": 3951,
      "lê": 3952,
      "2000": 3953,
      "Pal": 3954,
      "đùa": 3955,
      "ghan": 3956,
      "cảng": 3957,
      "tây": 3958,
      "Tới": 3959,
      "han": 3960,
      "pr": 3961,
      "triết": 3962,
      "Nhận": 3963,
      "vịnh": 3964,
      "bát": 3965,
      "m2": 3966,
      "chen": 3967,
      "giờ": 3968,
      "ame": 3969,
      "ngham": 3970,
      "bắc": 3971,
      "kiệm": 3972,
      "táo": 3973,
      "Trùng": 3974,
      "áp": 3975,
      "BA": 3976,
      "Van": 3977,
      "mười": 3978,
      "ỏm": 3979,
      "Dort": 3980,
      "Fan": 3981,
      "HS": 3982,
      "dở": 3983,
      "’,": 3984,
      "Nhâm": 3985,
      "Dortmund": 3986,
      "Ga": 3987,
      "Mông": 3988,
      "clip": 3989,
      "hầm": 3990,
      "Nhi": 3991,
      "aly": 3992,
      "68": 3993,
      "Sil": 3994,
      "mạn": 3995,
      "phẳng": 3996,
      "Kiatisak": 3997,
      "Kế": 3998,
      "lường": 3999,
      "ping": 4000,
      "nhở": 4001,
      "giữ": 4002,
      "lui": 4003,
      "dạo": 4004,
      "tuổi": 4005,
      "vạch": 4006,
      "Cha": 4007,
      "đói": 4008,
      "alo": 4009,
      "nói": 4010,
      "đai": 4011,
      "khoe": 4012,
      "buýt": 4013,
      "Lon": 4014,
      "lừa": 4015,
      "chức": 4016,
      "Barcel": 4017,
      "Barcelona": 4018,
      "Min": 4019,
      "Sư": 4020,
      "Uy": 4021,
      "ans": 4022,
      "Khởi": 4023,
      "chả": 4024,
      "mình": 4025,
      "BÀ": 4026,
      "Hay": 4027,
      "kiều": 4028,
      "hoài": 4029,
      "thoáng": 4030,
      "BL": 4031,
      "Lạch": 4032,
      "kĩ": 4033,
      "não": 4034,
      "visa": 4035,
      "Kho": 4036,
      "May": 4037,
      "thiệp": 4038,
      "lịch": 4039,
      "Cảnh": 4040,
      "diễn": 4041,
      "Bah": 4042,
      "Afghan": 4043,
      "At": 4044,
      "Quốc": 4045,
      "vọt": 4046,
      "ngộ": 4047,
      "ling": 4048,
      "dọa": 4049,
      "tiễn": 4050,
      "ghli": 4051,
      "đánh": 4052,
      "Afghanistan": 4053,
      ",…": 4054,
      "Cảm": 4055,
      "DC": 4056,
      "Oanh": 4057,
      "Nghiên": 4058,
      "ES": 4059,
      "SCL": 4060,
      "nàng": 4061,
      "̉u": 4062,
      "áo": 4063,
      "triều": 4064,
      "Hợp": 4065,
      "UN": 4066,
      "vắc": 4067,
      "thầm": 4068,
      "cuồng": 4069,
      "td": 4070,
      "Tray": 4071,
      "khiếu": 4072,
      "phiếu": 4073,
      "ji": 4074,
      "web": 4075,
      "biết": 4076,
      "Ly": 4077,
      "Mã": 4078,
      "lọc": 4079,
      "ub": 4080,
      "nghiệp": 4081,
      "Old": 4082,
      "vay": 4083,
      "triệt": 4084,
      "trường": 4085,
      "2009": 4086,
      "ời": 4087,
      "ngựa": 4088,
      "unt": 4089,
      "thực": 4090,
      "hộp": 4091,
      "tàn": 4092,
      "vết": 4093,
      "đèo": 4094,
      "tạo": 4095,
      "cướp": 4096,
      "Hoàn": 4097,
      "Pi": 4098,
      "khoẻ": 4099,
      "BV": 4100,
      "lam": 4101,
      "ệch": 4102,
      "ựng": 4103,
      "chọc": 4104,
      "chèo": 4105,
      "Onana": 4106,
      "veen": 4107,
      "Fo": 4108,
      "cer": 4109,
      "bảng": 4110,
      "occo": 4111,
      "IX": 4112,
      "xóa": 4113,
      "UE": 4114,
      "Đừng": 4115,
      "trân": 4116,
      "Làng": 4117,
      "lây": 4118,
      "từng": 4119,
      "ctor": 4120,
      "Morocco": 4121,
      "King": 4122,
      "Mạch": 4123,
      "tách": 4124,
      "London": 4125,
      "din": 4126,
      "mù": 4127,
      "nhãn": 4128,
      "85": 4129,
      "Bắn": 4130,
      "rộn": 4131,
      "Thêm": 4132,
      "Utd": 4133,
      "chó": 4134,
      "Thúy": 4135,
      "Tiếng": 4136,
      "sướng": 4137,
      "Quỳnh": 4138,
      "rốt": 4139,
      "nd": 4140,
      "ộm": 4141,
      "thứ": 4142,
      "York": 4143,
      "bảy": 4144,
      "chật": 4145,
      "thiêng": 4146,
      "ghts": 4147,
      "trộn": 4148,
      "ưởng": 4149,
      "Ten": 4150,
      "lũng": 4151,
      "rãi": 4152,
      "vỏ": 4153,
      "điê": 4154,
      "Nên": 4155,
      "dược": 4156,
      "sàn": 4157,
      "val": 4158,
      "16h": 4159,
      "Cậu": 4160,
      "nộp": 4161,
      "ze": 4162,
      "Trao": 4163,
      "Ngôi": 4164,
      "dập": 4165,
      "dney": 4166,
      "̣a": 4167,
      "mắm": 4168,
      "wn": 4169,
      "zer": 4170,
      "David": 4171,
      "Thất": 4172,
      "ĐBSCL": 4173,
      "ale": 4174,
      "Doha": 4175,
      "Para": 4176,
      "kỉ": 4177,
      "lly": 4178,
      "per": 4179,
      "trọng": 4180,
      "UEFA": 4181,
      "xạ": 4182,
      "đúc": 4183,
      "''+": 4184,
      "En": 4185,
      "les": 4186,
      "trần": 4187,
      "buôn": 4188,
      "hiền": 4189,
      "vị": 4190,
      "bông": 4191,
      "book": 4192,
      "fford": 4193,
      "Sydney": 4194,
      "nhẫn": 4195,
      "ut": 4196,
      "Heeren": 4197,
      "Trafford": 4198,
      "67": 4199,
      "chớp": 4200,
      "Bây": 4201,
      "risti": 4202,
      "gối": 4203,
      "vệ": 4204,
      "Andre": 4205,
      ",...": 4206,
      "bạch": 4207,
      "kiệt": 4208,
      "đọ": 4209,
      "nhắm": 4210,
      "lớn": 4211,
      "hổ": 4212,
      "̣y": 4213,
      "chênh": 4214,
      "min": 4215,
      "Đơn": 4216,
      "Trái": 4217,
      "alty": 4218,
      "Giới": 4219,
      "rain": 4220,
      "cast": 4221,
      "khoảng": 4222,
      "Heerenveen": 4223,
      "ngọc": 4224,
      "nhắn": 4225,
      "Trả": 4226,
      "Trở": 4227,
      "tự": 4228,
      "cởi": 4229,
      "Đăng": 4230,
      "khấu": 4231,
      "lãm": 4232,
      "ché": 4233,
      "kha": 4234,
      "Thua": 4235,
      "nghiệt": 4236,
      "Sou": 4237,
      "trạm": 4238,
      "viễn": 4239,
      "đoàn": 4240,
      "hama": 4241,
      "Hạnh": 4242,
      "bừng": 4243,
      "̀y": 4244,
      "ernand": 4245,
      ".\"": 4246,
      "lực": 4247,
      "lian": 4248,
      "điều": 4249,
      "pan": 4250,
      "Colo": 4251,
      "DN": 4252,
      "eli": 4253,
      "Bahrain": 4254,
      "72": 4255,
      "Yoko": 4256,
      "mã": 4257,
      "gục": 4258,
      "hối": 4259,
      "Đạt": 4260,
      "buông": 4261,
      "John": 4262,
      "sương": 4263,
      "ws": 4264,
      "Ăn": 4265,
      "chệch": 4266,
      "Quản": 4267,
      "El": 4268,
      "mươi": 4269,
      "tor": 4270,
      "̉y": 4271,
      "!!!": 4272,
      "RO": 4273,
      "tháo": 4274,
      "ghlights": 4275,
      "castle": 4276,
      "dũng": 4277,
      "nghẹt": 4278,
      "hoan": 4279,
      "gắt": 4280,
      "thềm": 4281,
      "hoành": 4282,
      "Newcastle": 4283,
      "Mau": 4284,
      "Đấu": 4285,
      "Đắk": 4286,
      "nhé": 4287,
      "63": 4288,
      "Rõ": 4289,
      "bụng": 4290,
      "Trực": 4291,
      "ST": 4292,
      "chúng": 4293,
      "gần": 4294,
      "vent": 4295,
      "Bern": 4296,
      "Kon": 4297,
      "del": 4298,
      "pi": 4299,
      "phở": 4300,
      "giọng": 4301,
      "chủ": 4302,
      "roup": 4303,
      "Địa": 4304,
      "thánh": 4305,
      "sức": 4306,
      "Silva": 4307,
      "khó": 4308,
      "gìn": 4309,
      "Pan": 4310,
      "Val": 4311,
      "biệt": 4312,
      "tôm": 4313,
      "đòn": 4314,
      "ence": 4315,
      "88": 4316,
      "FPT": 4317,
      "nan": 4318,
      "Nhơn": 4319,
      "2002": 4320,
      "Xây": 4321,
      "gặt": 4322,
      "̣m": 4323,
      "chán": 4324,
      "khôi": 4325,
      "Chân": 4326,
      "tình": 4327,
      "ema": 4328,
      "Càng": 4329,
      "Vừa": 4330,
      "kok": 4331,
      "Thuyền": 4332,
      "khói": 4333,
      "62": 4334,
      "Muốn": 4335,
      "giường": 4336,
      "wondo": 4337,
      "phát": 4338,
      "Niềm": 4339,
      "TG": 4340,
      "lượn": 4341,
      "mặt": 4342,
      "nô": 4343,
      "Yokohama": 4344,
      "Sha": 4345,
      "trượt": 4346,
      "khẩn": 4347,
      "Doanh": 4348,
      "out": 4349,
      "Dữ": 4350,
      "Gra": 4351,
      "cưng": 4352,
      "ốm": 4353,
      "Phu": 4354,
      "are": 4355,
      "lúc": 4356,
      "xico": 4357,
      "Bangkok": 4358,
      "Trị": 4359,
      "penalty": 4360,
      "Mexico": 4361,
      "mỉ": 4362,
      "mòn": 4363,
      "?”.": 4364,
      "Môn": 4365,
      "Ví": 4366,
      "rà": 4367,
      "Đạo": 4368,
      "Chắc": 4369,
      "tích": 4370,
      "ena": 4371,
      "thip": 4372,
      "marathon": 4373,
      "Mc": 4374,
      "aro": 4375,
      "ách": 4376,
      "Lin": 4377,
      "gián": 4378,
      "Voi": 4379,
      "64": 4380,
      "Lưu": 4381,
      "Viết": 4382,
      "lý": 4383,
      "mổ": 4384,
      "đạn": 4385,
      "ụa": 4386,
      "Chùa": 4387,
      "ghét": 4388,
      "BÀN": 4389,
      "nếp": 4390,
      "đựng": 4391,
      "ngầm": 4392,
      "quả": 4393,
      "Vườn": 4394,
      "muối": 4395,
      "tính": 4396,
      "voi": 4397,
      "Phả": 4398,
      "phút": 4399,
      "gay": 4400,
      "Đức": 4401,
      "đỗ": 4402,
      "nhạy": 4403,
      "bụi": 4404,
      "cúng": 4405,
      "diệt": 4406,
      "mò": 4407,
      "mồ": 4408,
      "múa": 4409,
      "iển": 4410,
      "iệm": 4411,
      "ekwondo": 4412,
      "Va": 4413,
      "Chana": 4414,
      "TITC": 4415,
      "Tiểu": 4416,
      "móc": 4417,
      "Hoj": 4418,
      "ster": 4419,
      "Chanathip": 4420,
      "Cây": 4421,
      "Tử": 4422,
      "chel": 4423,
      "Klo": 4424,
      "Liêm": 4425,
      "Ram": 4426,
      "mày": 4427,
      "thung": 4428,
      "AC": 4429,
      "KH": 4430,
      "ew": 4431,
      "hưng": 4432,
      "lót": 4433,
      "vướng": 4434,
      "trứng": 4435,
      "phô": 4436,
      "chuột": 4437,
      "des": 4438,
      "xí": 4439,
      "gio": 4440,
      "ASI": 4441,
      "Cương": 4442,
      "Sen": 4443,
      "bri": 4444,
      "trật": 4445,
      "phe": 4446,
      "Tp": 4447,
      "manh": 4448,
      "mes": 4449,
      "sơn": 4450,
      "Thiện": 4451,
      "'',": 4452,
      "oot": 4453,
      "hóc": 4454,
      "thống": 4455,
      "2030": 4456,
      "Nhật": 4457,
      "ngoan": 4458,
      "Kar": 4459,
      "Vẫn": 4460,
      "lỗ": 4461,
      "vơ": 4462,
      "xỉ": 4463,
      "khiêm": 4464,
      "khía": 4465,
      "Mason": 4466,
      "truyện": 4467,
      "khôn": 4468,
      "ays": 4469,
      "Bị": 4470,
      "HD": 4471,
      "Khoảng": 4472,
      "Os": 4473,
      "kiêm": 4474,
      "lau": 4475,
      "thước": 4476,
      "2025": 4477,
      "hỗn": 4478,
      "celo": 4479,
      "Geo": 4480,
      "Nass": 4481,
      "Sal": 4482,
      "dâu": 4483,
      "ẳng": 4484,
      "thấy": 4485,
      "giu": 4486,
      "art": 4487,
      "las": 4488,
      "Mano": 4489,
      "Côn": 4490,
      "Mấy": 4491,
      "ặp": 4492,
      "that": 4493,
      "lund": 4494,
      "Saigon": 4495,
      "Res": 4496,
      "nhỉnh": 4497,
      "III": 4498,
      "Is": 4499,
      "tam": 4500,
      "Hojlund": 4501,
      "Son": 4502,
      "lôi": 4503,
      "đạo": 4504,
      "Ang": 4505,
      "Tên": 4506,
      "dạn": 4507,
      "Chiếc": 4508,
      "Nuti": 4509,
      "Tỉnh": 4510,
      "mùng": 4511,
      "túng": 4512,
      "loãng": 4513,
      "Bá": 4514,
      "cáp": 4515,
      "Chuyên": 4516,
      "int": 4517,
      "eld": 4518,
      "Mount": 4519,
      "sếp": 4520,
      "đắng": 4521,
      "Khó": 4522,
      "Hon": 4523,
      "West": 4524,
      "ker": 4525,
      "mỏ": 4526,
      "tiê": 4527,
      "ASIAD": 4528,
      "!”.": 4529,
      "Hà": 4530,
      "khơi": 4531,
      "Topen": 4532,
      "Mỹ": 4533,
      "lũy": 4534,
      "IV": 4535,
      "zo": 4536,
      "chéo": 4537,
      "đường": 4538,
      "xuôi": 4539,
      "Muang": 4540,
      "600": 4541,
      "Bố": 4542,
      "Her": 4543,
      "hôi": 4544,
      "lắp": 4545,
      "rửa": 4546,
      "ary": 4547,
      "saka": 4548,
      "Bri": 4549,
      "bọc": 4550,
      "hot": 4551,
      "dặn": 4552,
      "Chơi": 4553,
      "2004": 4554,
      "HĐ": 4555,
      "diệu": 4556,
      "háo": 4557,
      "hiếu": 4558,
      "rea": 4559,
      "Ngu": 4560,
      "tine": 4561,
      "Bách": 4562,
      "hức": 4563,
      "đè": 4564,
      "điêu": 4565,
      "BLV": 4566,
      "76": 4567,
      "Cor": 4568,
      "phan": 4569,
      "Bạch": 4570,
      "vây": 4571,
      "Đá": 4572,
      "ding": 4573,
      "ju": 4574,
      "tưng": 4575,
      "phái": 4576,
      "Nhì": 4577,
      "Kênh": 4578,
      "hàm": 4579,
      "thợ": 4580,
      "khiến": 4581,
      "tổ": 4582,
      "Juvent": 4583,
      "Juventus": 4584,
      "99": 4585,
      "Nghe": 4586,
      "78": 4587,
      "dẫn": 4588,
      "ắn": 4589,
      "2005": 4590,
      "bột": 4591,
      "đứt": 4592,
      "thô": 4593,
      "củng": 4594,
      "doping": 4595,
      "Sco": 4596,
      "bằng": 4597,
      "đằng": 4598,
      "́u": 4599,
      "Trịnh": 4600,
      "ake": 4601,
      "trình": 4602,
      "nảy": 4603,
      "Phía": 4604,
      "Dubai": 4605,
      "Hào": 4606,
      "Đêm": 4607,
      "ịn": 4608,
      "kham": 4609,
      "ghép": 4610,
      "Benz": 4611,
      "giúp": 4612,
      "Nằm": 4613,
      "cuối": 4614,
      "khoáng": 4615,
      "Online": 4616,
      "C1": 4617,
      "Lại": 4618,
      "TA": 4619,
      "had": 4620,
      "Ít": 4621,
      "khống": 4622,
      "Thiếu": 4623,
      "61": 4624,
      "thức": 4625,
      "mảng": 4626,
      "phiền": 4627,
      "online": 4628,
      "Ngược": 4629,
      "Roma": 4630,
      "Nassr": 4631,
      "Hầu": 4632,
      "ear": 4633,
      "khuất": 4634,
      "xuất": 4635,
      "Filip": 4636,
      "73": 4637,
      "Mat": 4638,
      "VBA": 4639,
      "mộ": 4640,
      "̂n": 4641,
      "thép": 4642,
      "bún": 4643,
      "nồng": 4644,
      "khuy": 4645,
      "truyền": 4646,
      "Topenland": 4647,
      "Ven": 4648,
      "bin": 4649,
      "ẹo": 4650,
      "lat": 4651,
      "đề": 4652,
      "lung": 4653,
      "ngỡ": 4654,
      "Triệu": 4655,
      "Huấn": 4656,
      "Tin": 4657,
      "cal": 4658,
      "lụa": 4659,
      "86": 4660,
      "Sức": 4661,
      "bể": 4662,
      "dời": 4663,
      "io": 4664,
      "kình": 4665,
      "trẻ": 4666,
      "chuyển": 4667,
      "cậy": 4668,
      "rộ": 4669,
      "Sancho": 4670,
      "Travel": 4671,
      "thưa": 4672,
      "hạng": 4673,
      "77": 4674,
      "Tôn": 4675,
      "xôi": 4676,
      "ẾT": 4677,
      "OO": 4678,
      "hò": 4679,
      "ầy": 4680,
      "khốc": 4681,
      "uyện": 4682,
      "Jose": 4683,
      "Bạc": 4684,
      "Và": 4685,
      "lật": 4686,
      "chuyện": 4687,
      "PC": 4688,
      "Wolf": 4689,
      "mông": 4690,
      "Thạch": 4691,
      "For": 4692,
      "MI": 4693,
      "lặp": 4694,
      "sạt": 4695,
      "wer": 4696,
      "nhũng": 4697,
      "quyết": 4698,
      "Benzema": 4699,
      "81": 4700,
      "Gò": 4701,
      "ngõ": 4702,
      "then": 4703,
      "gui": 4704,
      "ấm": 4705,
      "lượt": 4706,
      "BC": 4707,
      "trâu": 4708,
      "20h": 4709,
      "Young": 4710,
      "700": 4711,
      "Cửu": 4712,
      "car": 4713,
      "thự": 4714,
      "Tru": 4715,
      "edia": 4716,
      "Ah": 4717,
      "Bến": 4718,
      "Vạn": 4719,
      "lăng": 4720,
      "nia": 4721,
      "ậu": 4722,
      "tốp": 4723,
      "Rodri": 4724,
      "bình": 4725,
      "Mer": 4726,
      "Tường": 4727,
      "hat": 4728,
      "hòng": 4729,
      "mad": 4730,
      "rằng": 4731,
      "đắp": 4732,
      "Thánh": 4733,
      "Trải": 4734,
      "Paul": 4735,
      "vinam": 4736,
      "Cá": 4737,
      "Gea": 4738,
      "Xe": 4739,
      "gang": 4740,
      "xé": 4741,
      "̂ng": 4742,
      "cua": 4743,
      "Cer": 4744,
      "lừng": 4745,
      "ner": 4746,
      "Giữa": 4747,
      "Dan": 4748,
      "Fer": 4749,
      "hãi": 4750,
      "mọi": 4751,
      "AS": 4752,
      "Mạc": 4753,
      "bội": 4754,
      "xô": 4755,
      "Quá": 4756,
      "Holly": 4757,
      "Anton": 4758,
      "2007": 4759,
      "Grand": 4760,
      "Muangthong": 4761,
      "71": 4762,
      "trick": 4763,
      "thì": 4764,
      "khoá": 4765,
      "Night": 4766,
      "thường": 4767,
      "000m": 4768,
      "Fernand": 4769,
      "vở": 4770,
      "nhí": 4771,
      "nhả": 4772,
      "bản": 4773,
      "Rober": 4774,
      "Pra": 4775,
      "bất": 4776,
      "tơ": 4777,
      "trốn": 4778,
      "rate": 4779,
      "Toyo": 4780,
      "ario": 4781,
      "dò": 4782,
      "nút": 4783,
      "win": 4784,
      "thấm": 4785,
      "ộng": 4786,
      "tuệ": 4787,
      "cái": 4788,
      "giữa": 4789,
      "You": 4790,
      "rong": 4791,
      "̃nh": 4792,
      "chăn": 4793,
      "chấn": 4794,
      "tháng": 4795,
      "Cheng": 4796,
      "Phùng": 4797,
      "200m": 4798,
      "Mộc": 4799,
      "Tác": 4800,
      "Đất": 4801,
      "Đương": 4802,
      "hoàn": 4803,
      "Gre": 4804,
      "nội": 4805,
      "vải": 4806,
      "covid": 4807,
      "Thuỵ": 4808,
      "2006": 4809,
      "Cát": 4810,
      "Er": 4811,
      "Es": 4812,
      "Hòn": 4813,
      "VÀ": 4814,
      "ẮNG": 4815,
      "Thừa": 4816,
      "giáp": 4817,
      "Bank": 4818,
      "Luis": 4819,
      "cebook": 4820,
      "nhuận": 4821,
      "89": 4822,
      "BH": 4823,
      "tọa": 4824,
      "yan": 4825,
      "trục": 4826,
      "soi": 4827,
      "Cristi": 4828,
      "Dia": 4829,
      "bứt": 4830,
      "luyện": 4831,
      "thắp": 4832,
      "khiển": 4833,
      "hoi": 4834,
      "Hae": 4835,
      "bấy": 4836,
      "cạn": 4837,
      "onel": 4838,
      "Khắc": 4839,
      "tựu": 4840,
      "Mito": 4841,
      "muôn": 4842,
      "Toyota": 4843,
      "We": 4844,
      "Wil": 4845,
      "hỏa": 4846,
      "zu": 4847,
      "Chánh": 4848,
      "lỏng": 4849,
      "tủ": 4850,
      "đắc": 4851,
      "nga": 4852,
      "thắn": 4853,
      "trọ": 4854,
      "EURO": 4855,
      "Ad": 4856,
      "Belli": 4857,
      "Gon": 4858,
      "Sch": 4859,
      "chớ": 4860,
      "đáy": 4861,
      "tục": 4862,
      "Cal": 4863,
      "Hệ": 4864,
      "rắn": 4865,
      "chốn": 4866,
      "thai": 4867,
      "trữ": 4868,
      "Bellingham": 4869,
      "Á": 4870,
      "Bãi": 4871,
      "gũi": 4872,
      "1990": 4873,
      "100m": 4874,
      "ev": 4875,
      "THẮNG": 4876,
      "Bốn": 4877,
      "bạt": 4878,
      "len": 4879,
      "tám": 4880,
      "aya": 4881,
      "lượng": 4882,
      "95": 4883,
      "Cà": 4884,
      "Osaka": 4885,
      "Tăng": 4886,
      "bar": 4887,
      "nhặt": 4888,
      "tional": 4889,
      "Italy": 4890,
      "show": 4891,
      "Cú": 4892,
      "lùng": 4893,
      "miệt": 4894,
      "Pháp": 4895,
      "Giao": 4896,
      "Mở": 4897,
      "bộc": 4898,
      "càng": 4899,
      "you": 4900,
      "Đôi": 4901,
      "ẻo": 4902,
      "ngẫu": 4903,
      "chua": 4904,
      "bour": 4905,
      "Han": 4906,
      "Kỷ": 4907,
      "rel": 4908,
      "ùn": 4909,
      "điên": 4910,
      "nhọc": 4911,
      "bại": 4912,
      "cần": 4913,
      "tông": 4914,
      "vĩnh": 4915,
      "chép": 4916,
      "vé": 4917,
      "Áo": 4918,
      "thèm": 4919,
      "Moham": 4920,
      "Group": 4921,
      "SG": 4922,
      "sáng": 4923,
      "tiệm": 4924,
      "phơi": 4925,
      "át": 4926,
      "poli": 4927,
      "Sẽ": 4928,
      "sưu": 4929,
      "tes": 4930,
      "thỉnh": 4931,
      "Phố": 4932,
      "Seoul": 4933,
      "dải": 4934,
      "long": 4935,
      "tao": 4936,
      "Trời": 4937,
      "use": 4938,
      "lắc": 4939,
      "ợn": 4940,
      "Thom": 4941,
      "Chợ": 4942,
      "Lionel": 4943,
      "66": 4944,
      "Quyền": 4945,
      "ler": 4946,
      "llo": 4947,
      "ngực": 4948,
      "Tre": 4949,
      "Chuyến": 4950,
      "ardo": 4951,
      "cảm": 4952,
      "dịu": 4953,
      "Ru": 4954,
      "bel": 4955,
      "xen": 4956,
      "”:": 4957,
      "Nhớ": 4958,
      "urn": 4959,
      "Pu": 4960,
      "ball": 4961,
      "hận": 4962,
      "red": 4963,
      "Ở": 4964,
      "ửng": 4965,
      "mestay": 4966,
      "?”": 4967,
      "Sáu": 4968,
      "ầm": 4969,
      "Thổ": 4970,
      "cụm": 4971,
      "bén": 4972,
      "1995": 4973,
      "hiê": 4974,
      "rũ": 4975,
      "ron": 4976,
      "tồi": 4977,
      "tis": 4978,
      "đáng": 4979,
      "Europa": 4980,
      "Nguồn": 4981,
      "var": 4982,
      "Bor": 4983,
      "Hán": 4984,
      "vách": 4985,
      "giết": 4986,
      "Thiết": 4987,
      "Thích": 4988,
      "Gh": 4989,
      "TM": 4990,
      "hành": 4991,
      "ward": 4992,
      "Động": 4993,
      "gì": 4994,
      "cm": 4995,
      "gạt": 4996,
      "lẫy": 4997,
      "phun": 4998,
      "...,": 4999,
      "Giáng": 5000,
      "SC": 5001,
      "Tứ": 5002,
      "cỗ": 5003,
      "xế": 5004,
      "ồ": 5005,
      "ậm": 5006,
      "Frank": 5007,
      "74": 5008,
      "79": 5009,
      "Cảng": 5010,
      "Lực": 5011,
      "Vài": 5012,
      "Xuyên": 5013,
      "run": 5014,
      "tế": 5015,
      "vôi": 5016,
      "thuẫn": 5017,
      "Hoe": 5018,
      "Cristiano": 5019,
      "cược": 5020,
      "shi": 5021,
      "thấu": 5022,
      "Lucer": 5023,
      "đếm": 5024,
      "loại": 5025,
      "Lucerne": 5026,
      "Au": 5027,
      "tò": 5028,
      "chí": 5029,
      "Ji": 5030,
      "Lời": 5031,
      "sy": 5032,
      "ếm": 5033,
      "nghĩ": 5034,
      "Internet": 5035,
      "Flor": 5036,
      "ble": 5037,
      "hiệu": 5038,
      "ny": 5039,
      "isa": 5040,
      "Villa": 5041,
      "FAT": 5042,
      "Martinez": 5043,
      "burg": 5044,
      "Lắk": 5045,
      "Xuất": 5046,
      "cau": 5047,
      "ngào": 5048,
      "choáng": 5049,
      "chọn": 5050,
      "15h": 5051,
      "Tay": 5052,
      "gặp": 5053,
      "răng": 5054,
      "TTX": 5055,
      "cớ": 5056,
      "gle": 5057,
      "tein": 5058,
      "CE": 5059,
      "Gang": 5060,
      "Khai": 5061,
      "82": 5062,
      "Lau": 5063,
      "Lập": 5064,
      "Mùi": 5065,
      "Pen": 5066,
      "đẻ": 5067,
      "giam": 5068,
      "hoạ": 5069,
      "ds": 5070,
      "fer": 5071,
      "ngán": 5072,
      "ghton": 5073,
      "mann": 5074,
      "83": 5075,
      "Bro": 5076,
      "rủ": 5077,
      "ý": 5078,
      "đuối": 5079,
      "châm": 5080,
      "chợt": 5081,
      "Rim": 5082,
      "Sim": 5083,
      "dê": 5084,
      "rẽ": 5085,
      "đắn": 5086,
      "Victor": 5087,
      "Dẫu": 5088,
      "dì": 5089,
      "Kyr": 5090,
      "Hãng": 5091,
      "Wi": 5092,
      "bẫy": 5093,
      "wai": 5094,
      "ther": 5095,
      "quyển": 5096,
      "ôtô": 5097,
      "Chú": 5098,
      "PSSI": 5099,
      "ốn": 5100,
      "ỉa": 5101,
      "ngừa": 5102,
      "trăng": 5103,
      "Die": 5104,
      "Tuần": 5105,
      "derby": 5106,
      "69": 5107,
      "Tinh": 5108,
      "ment": 5109,
      "sườn": 5110,
      "tang": 5111,
      "nghịch": 5112,
      "ngoặt": 5113,
      "Colom": 5114,
      ")...": 5115,
      "dỏm": 5116,
      "nát": 5117,
      "nhiếp": 5118,
      "ươm": 5119,
      "Phù": 5120,
      "orn": 5121,
      "Khả": 5122,
      "ánh": 5123,
      "Facebook": 5124,
      "Pales": 5125,
      "Hết": 5126,
      "xá": 5127,
      "xáo": 5128,
      "chẩn": 5129,
      "giọt": 5130,
      "sử": 5131,
      "Bơi": 5132,
      "Bus": 5133,
      "Quyến": 5134,
      "vã": 5135,
      "eri": 5136,
      "Quỹ": 5137,
      "250": 5138,
      "gyz": 5139,
      "Ever": 5140,
      "MG": 5141,
      "Sala": 5142,
      "med": 5143,
      "nhọn": 5144,
      "Alexand": 5145,
      "Kyrgyz": 5146,
      "Goo": 5147,
      "ex": 5148,
      "nồi": 5149,
      "Nho": 5150,
      "homestay": 5151,
      "Khanh": 5152,
      "ici": 5153,
      "Sanna": 5154,
      "Miền": 5155,
      "gật": 5156,
      "lúng": 5157,
      "tóm": 5158,
      "xông": 5159,
      "đầm": 5160,
      "đắm": 5161,
      "đặc": 5162,
      "̂i": 5163,
      "̣u": 5164,
      "nhánh": 5165,
      "highlights": 5166,
      "Serie": 5167,
      "Palestine": 5168,
      "Tỷ": 5169,
      "vắt": 5170,
      "rah": 5171,
      "Ngành": 5172,
      "400m": 5173,
      "tím": 5174,
      "UNES": 5175,
      "Thomas": 5176,
      "Lớn": 5177,
      "Media": 5178,
      "NT": 5179,
      "bung": 5180,
      "ku": 5181,
      "mài": 5182,
      "ợ": 5183,
      "nhựa": 5184,
      "ail": 5185,
      "toan": 5186,
      "ĐVN": 5187,
      "nom": 5188,
      "Italia": 5189,
      "Rimario": 5190,
      "UNESCO": 5191,
      "Uk": 5192,
      "quầy": 5193,
      "Thái": 5194,
      "MA": 5195,
      "Xã": 5196,
      "ít": 5197,
      "kẽ": 5198,
      "lồng": 5199,
      "éc": 5200,
      "đan": 5201,
      "air": 5202,
      "tions": 5203,
      "Quận": 5204,
      "!”": 5205,
      "Cửa": 5206,
      "báu": 5207,
      "hả": 5208,
      "Nhiệm": 5209,
      "Magui": 5210,
      "Maguire": 5211,
      "Bali": 5212,
      "sòng": 5213,
      "Đứng": 5214,
      "giặc": 5215,
      "ens": 5216,
      "ini": 5217,
      "quyến": 5218,
      "Ancelo": 5219,
      "ĐKT": 5220,
      "with": 5221,
      "Kyrgyzstan": 5222,
      "Ancelotti": 5223,
      "Duyên": 5224,
      "Omar": 5225,
      "Yang": 5226,
      "dừa": 5227,
      "gã": 5228,
      "mức": 5229,
      "nòng": 5230,
      "Quần": 5231,
      "Costa": 5232,
      "trải": 5233,
      "Gangwon": 5234,
      "Dang": 5235,
      "Màn": 5236,
      "Pla": 5237,
      "PGS": 5238,
      "Xếp": 5239,
      "sợi": 5240,
      "béo": 5241,
      "tốt": 5242,
      "1997": 5243,
      "84": 5244,
      "Gặp": 5245,
      "hung": 5246,
      "măng": 5247,
      "rung": 5248,
      "Đậu": 5249,
      "Phụ": 5250,
      "chuông": 5251,
      "Tum": 5252,
      "Jan": 5253,
      "Tạ": 5254,
      "Vợ": 5255,
      "Google": 5256,
      "Lang": 5257,
      "Rice": 5258,
      "nàn": 5259,
      "ps": 5260,
      "Chan": 5261,
      "esli": 5262,
      "cheon": 5263,
      "Paulo": 5264,
      "Liệu": 5265,
      "Tiêu": 5266,
      "cor": 5267,
      "xt": 5268,
      "xách": 5269,
      "đấm": 5270,
      "ngần": 5271,
      "chay": 5272,
      "vàn": 5273,
      "emen": 5274,
      "aku": 5275,
      "rồng": 5276,
      "ngả": 5277,
      "Khuất": 5278,
      "Ukrai": 5279,
      "Diệu": 5280,
      "báo": 5281,
      "hết": 5282,
      "nức": 5283,
      "Bec": 5284,
      "Từng": 5285,
      "Vận": 5286,
      "bal": 5287,
      "lộng": 5288,
      "pal": 5289,
      "2001": 5290,
      "Klopp": 5291,
      "Diego": 5292,
      "Bund": 5293,
      "Lữ": 5294,
      "hắn": 5295,
      "lánh": 5296,
      "rắc": 5297,
      "tú": 5298,
      "ngặt": 5299,
      "ngưng": 5300,
      "ngón": 5301,
      "ins": 5302,
      "làng": 5303,
      "Huệ": 5304,
      "mỗi": 5305,
      "Leic": 5306,
      "Brighton": 5307,
      "esliga": 5308,
      "Lân": 5309,
      "dại": 5310,
      "dươ": 5311,
      "xing": 5312,
      "ề": 5313,
      "đớn": 5314,
      "đoa": 5315,
      "pressi": 5316,
      "Bundesliga": 5317,
      "Pet": 5318,
      "kan": 5319,
      "was": 5320,
      "chuối": 5321,
      "phần": 5322,
      "ist": 5323,
      "bỏ": 5324,
      "Những": 5325,
      "mênh": 5326,
      "Leicester": 5327,
      "87": 5328,
      "Bái": 5329,
      "GĐKT": 5330,
      "Tòa": 5331,
      "hở": 5332,
      "lân": 5333,
      "hock": 5334,
      "Kylian": 5335,
      "Ukraine": 5336,
      "Kiến": 5337,
      "kể": 5338,
      "nhầm": 5339,
      "tico": 5340,
      "iss": 5341,
      "gom": 5342,
      "1998": 5343,
      "tiếng": 5344,
      "Dụng": 5345,
      "cấp": 5346,
      "ranh": 5347,
      "ngỏ": 5348,
      "trò": 5349,
      "Abdu": 5350,
      "Kiểm": 5351,
      "dối": 5352,
      "ip": 5353,
      "Đen": 5354,
      "thâm": 5355,
      "dụng": 5356,
      "dịch": 5357,
      "Beckham": 5358,
      "gai": 5359,
      "mận": 5360,
      "triển": 5361,
      "địa": 5362,
      "eat": 5363,
      "trị": 5364,
      "Buri": 5365,
      "Lệ": 5366,
      "bô": 5367,
      "Biết": 5368,
      "Sint": 5369,
      "TR": 5370,
      "Za": 5371,
      "cy": 5372,
      "mâu": 5373,
      "ngụ": 5374,
      "thầu": 5375,
      "thịnh": 5376,
      "bỏng": 5377,
      "đủ": 5378,
      "Lối": 5379,
      "Một": 5380,
      "gra": 5381,
      "m50": 5382,
      "nhộn": 5383,
      "phiêu": 5384,
      "quát": 5385,
      "đán": 5386,
      "tino": 5387,
      "phòng": 5388,
      "pressing": 5389,
      "Jin": 5390,
      "mũ": 5391,
      "chửi": 5392,
      "lot": 5393,
      "ima": 5394,
      "CHDC": 5395,
      "phục": 5396,
      "Vovinam": 5397,
      "nổi": 5398,
      "ũa": 5399,
      "thắt": 5400,
      "Trui": 5401,
      "trí": 5402,
      "Times": 5403,
      "Truiden": 5404,
      "AI": 5405,
      "James": 5406,
      "VT": 5407,
      "Zur": 5408,
      "mãnh": 5409,
      "vư": 5410,
      "taxi": 5411,
      "Dangda": 5412,
      "Az": 5413,
      "Cat": 5414,
      "Or": 5415,
      "bán": 5416,
      "xưng": 5417,
      "Khôi": 5418,
      "elson": 5419,
      "villa": 5420,
      "Samson": 5421,
      "Colombia": 5422,
      "Salah": 5423,
      "Các": 5424,
      "Lạp": 5425,
      "Với": 5426,
      "lãi": 5427,
      "wat": 5428,
      "thọ": 5429,
      "thoái": 5430,
      "Rafa": 5431,
      "Zurich": 5432,
      "mỏng": 5433,
      "thắc": 5434,
      "Nhĩ": 5435,
      "ưởi": 5436,
      "Rome": 5437,
      "ootball": 5438,
      "đĩa": 5439,
      "quét": 5440,
      "1999": 5441,
      "Hollyhock": 5442,
      "Green": 5443,
      "Xa": 5444,
      "thiê": 5445,
      "Char": 5446,
      "sĩ": 5447,
      "Hướng": 5448,
      "Rash": 5449,
      "rớt": 5450,
      "esti": 5451,
      "Don": 5452,
      "Dar": 5453,
      "Sta": 5454,
      "Wat": 5455,
      "tihad": 5456,
      "aki": 5457,
      "chael": 5458,
      "mỡ": 5459,
      "sở": 5460,
      "test": 5461,
      "vỗ": 5462,
      "ẻm": 5463,
      "lều": 5464,
      "Bảy": 5465,
      "Sp": 5466,
      "rao": 5467,
      "sụp": 5468,
      "thòi": 5469,
      "Ngư": 5470,
      "Khác": 5471,
      "Garcia": 5472,
      "Rashford": 5473,
      "Dani": 5474,
      "Jun": 5475,
      "Tiếc": 5476,
      "Ver": 5477,
      "cành": 5478,
      "rơ": 5479,
      "vỉa": 5480,
      "1972": 5481,
      "Wales": 5482,
      "CHDCND": 5483,
      "Dịch": 5484,
      "Suốt": 5485,
      "Tà": 5486,
      "Tám": 5487,
      "Yu": 5488,
      "bon": 5489,
      "Nhu": 5490,
      "rique": 5491,
      "Đón": 5492,
      "chén": 5493,
      "U13": 5494,
      "vấn": 5495,
      "ngất": 5496,
      "Ried": 5497,
      "vụ": 5498,
      "ảnh": 5499,
      "bus": 5500,
      "cò": 5501,
      "hiển": 5502,
      "tít": 5503,
      "ngòi": 5504,
      "ghe": 5505,
      "Giáp": 5506,
      "vịt": 5507,
      "Incheon": 5508,
      "South": 5509,
      "Củ": 5510,
      "lle": 5511,
      "ren": 5512,
      "chan": 5513,
      "ori": 5514,
      "Nguyê": 5515,
      "letico": 5516,
      "oney": 5517,
      "Đó": 5518,
      "nếu": 5519,
      "vóc": 5520,
      "ngây": 5521,
      "low": 5522,
      "Hoặc": 5523,
      "luồng": 5524,
      "ngoài": 5525,
      "ros": 5526,
      "chạy": 5527,
      "Cali": 5528,
      "Wake": 5529,
      "wang": 5530,
      "trễ": 5531,
      "bat": 5532,
      "Michael": 5533,
      "Taekwondo": 5534,
      "nữa": 5535,
      "Atletico": 5536,
      "Venice": 5537,
      "Ex": 5538,
      "Sri": 5539,
      "mm": 5540,
      "má": 5541,
      "đôn": 5542,
      "ịt": 5543,
      "chôn": 5544,
      "Chúa": 5545,
      "log": 5546,
      "Next": 5547,
      "Mong": 5548,
      "von": 5549,
      "thùng": 5550,
      "Jae": 5551,
      "Riedl": 5552,
      "Hiệu": 5553,
      "fri": 5554,
      "je": 5555,
      "kẹt": 5556,
      "lư": 5557,
      "mầm": 5558,
      "nể": 5559,
      "đùi": 5560,
      "ela": 5561,
      "Jadon": 5562,
      "Vinici": 5563,
      "Buriram": 5564,
      "Vinicius": 5565,
      "Rạng": 5566,
      "Wa": 5567,
      "dia": 5568,
      "kép": 5569,
      "lập": 5570,
      "lợi": 5571,
      "geria": 5572,
      "Cử": 5573,
      "KS": 5574,
      "xếp": 5575,
      "toà": 5576,
      "Mô": 5577,
      "bẻ": 5578,
      "Chris": 5579,
      "guay": 5580,
      "Napoli": 5581,
      "Cafe": 5582,
      "Golf": 5583,
      "Pao": 5584,
      "Ped": 5585,
      "QT": 5586,
      "Tạp": 5587,
      "Zi": 5588,
      "nhằn": 5589,
      "khánh": 5590,
      "THPT": 5591,
      "Fernandes": 5592,
      "Nguyễn": 5593,
      "gởi": 5594,
      "kiê": 5595,
      "oan": 5596,
      "ye": 5597,
      "chói": 5598,
      "trơn": 5599,
      "Ngãi": 5600,
      "Vie": 5601,
      "Marathon": 5602,
      "Truidense": 5603,
      "Pak": 5604,
      "Chúc": 5605,
      "usta": 5606,
      "Top": 5607,
      "KẾT": 5608,
      "Lạc": 5609,
      "Nay": 5610,
      "Sống": 5611,
      "dè": 5612,
      "lé": 5613,
      "ngàng": 5614,
      "Tràng": 5615,
      "247": 5616,
      "emiro": 5617,
      "Thấy": 5618,
      "19h30": 5619,
      "Họ": 5620,
      "Gui": 5621,
      "Gene": 5622,
      "Jur": 5623,
      "Ki": 5624,
      "Ras": 5625,
      "mộc": 5626,
      "nọ": 5627,
      "hòa": 5628,
      "Casemiro": 5629,
      "%)": 5630,
      "Ger": 5631,
      "Gun": 5632,
      "Lư": 5633,
      "Mơ": 5634,
      "bắt": 5635,
      "gas": 5636,
      "nt": 5637,
      "xướng": 5638,
      "lub": 5639,
      "Fu": 5640,
      "bàng": 5641,
      "bẹp": 5642,
      "bắp": 5643,
      "mất": 5644,
      "thốt": 5645,
      "khiếp": 5646,
      "Thần": 5647,
      "Khmer": 5648,
      "chuộng": 5649,
      "vis": 5650,
      "Nepal": 5651,
      "Seong": 5652,
      "PCR": 5653,
      "Bán": 5654,
      "Mường": 5655,
      "chằng": 5656,
      "Nguyệt": 5657,
      "1980": 5658,
      "cám": 5659,
      "Dù": 5660,
      "Hondu": 5661,
      "Trump": 5662,
      "Shi": 5663,
      "Tur": 5664,
      "khoai": 5665,
      "sống": 5666,
      "wski": 5667,
      "Honduras": 5668,
      "Men": 5669,
      "Nor": 5670,
      "Nỗi": 5671,
      "cối": 5672,
      "lõi": 5673,
      "móng": 5674,
      "rệt": 5675,
      "hóa": 5676,
      "Mos": 5677,
      "PP": 5678,
      "bỉ": 5679,
      "kno": 5680,
      "mở": 5681,
      "đới": 5682,
      "chao": 5683,
      "chài": 5684,
      "Trợ": 5685,
      "Phủ": 5686,
      "Roman": 5687,
      "Bruy": 5688,
      "1970": 5689,
      "Sevilla": 5690,
      "Pala": 5691,
      "TO": 5692,
      "Vé": 5693,
      "hệ": 5694,
      "hẻm": 5695,
      "rạch": 5696,
      "xì": 5697,
      "chúa": 5698,
      "earch": 5699,
      "estival": 5700,
      "Môi": 5701,
      "TNH": 5702,
      "dra": 5703,
      "hét": 5704,
      "vác": 5705,
      "ÚC": 5706,
      "bạn": 5707,
      "isto": 5708,
      "vọng": 5709,
      "Dec": 5710,
      "tụi": 5711,
      "TNHH": 5712,
      "1m": 5713,
      "Dần": 5714,
      "Del": 5715,
      "bách": 5716,
      "dẹp": 5717,
      "gô": 5718,
      "lột": 5719,
      "xẻ": 5720,
      "ngô": 5721,
      "trộm": 5722,
      "thuở": 5723,
      "cas": 5724,
      "Michel": 5725,
      "vợt": 5726,
      "Cze": 5727,
      "Hung": 5728,
      "xăng": 5729,
      "tuần": 5730,
      "Bruyne": 5731,
      "Uber": 5732,
      "cấn": 5733,
      "dồi": 5734,
      "mas": 5735,
      "Tranh": 5736,
      "ushu": 5737,
      "sipan": 5738,
      "Diễm": 5739,
      "Czech": 5740,
      "Bắt": 5741,
      "CC": 5742,
      "Kan": 5743,
      "Ken": 5744,
      "tước": 5745,
      "tìm": 5746,
      "...”.": 5747,
      "muốn": 5748,
      "Fansipan": 5749,
      "MC": 5750,
      "Mười": 5751,
      "dệt": 5752,
      "náo": 5753,
      "tấn": 5754,
      "Cháu": 5755,
      "tivi": 5756,
      "dic": 5757,
      "16m50": 5758,
      "sút": 5759,
      "Saint": 5760,
      "BS": 5761,
      "Căn": 5762,
      "eff": 5763,
      "tễ": 5764,
      "xích": 5765,
      "ngột": 5766,
      "hor": 5767,
      "Quê": 5768,
      "view": 5769,
      "vuông": 5770,
      "Mel": 5771,
      "cưỡng": 5772,
      "eh": 5773,
      "hà": 5774,
      "Trinh": 5775,
      "Dinh": 5776,
      "Tóm": 5777,
      "dai": 5778,
      "lạm": 5779,
      "mâm": 5780,
      "tấp": 5781,
      "iền": 5782,
      "cảnh": 5783,
      "Jack": 5784,
      "TTXVN": 5785,
      "ket": 5786,
      "khoăn": 5787,
      "VÀO": 5788,
      "Xanh": 5789,
      "ngắt": 5790,
      "thuật": 5791,
      "emb": 5792,
      "khả": 5793,
      "Declan": 5794,
      "Vùng": 5795,
      "vặt": 5796,
      "xưởng": 5797,
      "òm": 5798,
      "Nhung": 5799,
      "Giai": 5800,
      "ezo": 5801,
      "̣̂t": 5802,
      "Bas": 5803,
      "Dai": 5804,
      "Lâu": 5805,
      "Vĩ": 5806,
      "cắp": 5807,
      "hiếp": 5808,
      "rước": 5809,
      "set": 5810,
      "ẩn": 5811,
      "TTCN": 5812,
      "tui": 5813,
      "Bao": 5814,
      "Blu": 5815,
      "Jer": 5816,
      "Tưởng": 5817,
      "mon": 5818,
      "tới": 5819,
      "ặm": 5820,
      "phượt": 5821,
      "quý": 5822,
      "andro": 5823,
      "cực": 5824,
      "resort": 5825,
      "Bỏ": 5826,
      "Ivan": 5827,
      "Nà": 5828,
      "Năng": 5829,
      "Vịnh": 5830,
      "Xu": 5831,
      "trưởng": 5832,
      "CS": 5833,
      "Fed": 5834,
      "Gen": 5835,
      "Yemen": 5836,
      "gar": 5837,
      "sanh": 5838,
      "Phnom": 5839,
      "đổi": 5840,
      "fornia": 5841,
      "Gusta": 5842,
      "NN": 5843,
      "TN": 5844,
      "băn": 5845,
      "elo": 5846,
      "lát": 5847,
      "nại": 5848,
      "Đang": 5849,
      "ốp": 5850,
      "Chấn": 5851,
      "Luk": 5852,
      "vượt": 5853,
      "đoạn": 5854,
      "Mang": 5855,
      "tem": 5856,
      "tấc": 5857,
      "đặt": 5858,
      "trổ": 5859,
      "bởi": 5860,
      "California": 5861,
      ".,": 5862,
      "MR": 5863,
      "Mẫu": 5864,
      "Vượt": 5865,
      "dỗ": 5866,
      "Đàn": 5867,
      "hoại": 5868,
      "Geneva": 5869,
      "Hil": 5870,
      "Lá": 5871,
      "dài": 5872,
      "hươ": 5873,
      "đọng": 5874,
      "chất": 5875,
      "quái": 5876,
      "Chờ": 5877,
      "enti": 5878,
      "urt": 5879,
      "bio": 5880,
      "tụt": 5881,
      "BHXH": 5882,
      "LĐ": 5883,
      "Oli": 5884,
      "Tấm": 5885,
      "Zid": 5886,
      "game": 5887,
      "xao": 5888,
      "giã": 5889,
      "los": 5890,
      "dù": 5891,
      "nón": 5892,
      "Taj": 5893,
      "tượng": 5894,
      "Siam": 5895,
      "dric": 5896,
      "Ful": 5897,
      "Lăng": 5898,
      "gờ": 5899,
      "kin": 5900,
      "vùi": 5901,
      "vận": 5902,
      "xay": 5903,
      "nhươ": 5904,
      "Nhạc": 5905,
      "Zidane": 5906,
      "Bé": 5907,
      "Club": 5908,
      "Festival": 5909,
      "food": 5910,
      "gal": 5911,
      "sắc": 5912,
      "ừng": 5913,
      "arta": 5914,
      "diễu": 5915,
      "khoan": 5916,
      "Modric": 5917,
      "1996": 5918,
      "máy": 5919,
      "KT": 5920,
      "lở": 5921,
      "sét": 5922,
      "trừng": 5923,
      "anta": 5924,
      "Thạnh": 5925,
      "dowski": 5926,
      "Lewan": 5927,
      "kỷ": 5928,
      "Penh": 5929,
      "Cerezo": 5930,
      "Lewandowski": 5931,
      "bic": 5932,
      "cài": 5933,
      "jk": 5934,
      "kay": 5935,
      "ken": 5936,
      "khinh": 5937,
      "undai": 5938,
      "Amra": 5939,
      "Hyundai": 5940,
      "Nobel": 5941,
      "dễ": 5942,
      "Mê": 5943,
      "màng": 5944,
      "yu": 5945,
      "ÔNG": 5946,
      "Đọc": 5947,
      "trắc": 5948,
      "Thân": 5949,
      "Trăng": 5950,
      "tive": 5951,
      "tác": 5952,
      "xã": 5953,
      "hip": 5954,
      "ữu": 5955,
      "nén": 5956,
      "Biểu": 5957,
      "BCH": 5958,
      "Vu": 5959,
      "Wol": 5960,
      "gram": 5961,
      "nhuy": 5962,
      "chìa": 5963,
      "Chăm": 5964,
      "500m": 5965,
      "Amrabat": 5966,
      "Sách": 5967,
      "dạ": 5968,
      "tất": 5969,
      "túy": 5970,
      "xám": 5971,
      "đinh": 5972,
      "đống": 5973,
      "đốn": 5974,
      "khớp": 5975,
      "Trâm": 5976,
      "Phấn": 5977,
      "Quán": 5978,
      "khoát": 5979,
      "Hoạt": 5980,
      "Land": 5981,
      "travel": 5982,
      "News": 5983,
      "lời": 5984,
      "loạt": 5985,
      "Aston": 5986,
      "GDP": 5987,
      "Bin": 5988,
      "Football": 5989,
      "Hiến": 5990,
      "Jor": 5991,
      "Lò": 5992,
      "SA": 5993,
      "Sea": 5994,
      "Tor": 5995,
      "Vật": 5996,
      "rách": 5997,
      "vấp": 5998,
      "wood": 5999,
      "giòn": 6000,
      "Trước": 6001,
      "Lank": 6002,
      "đoán": 6003,
      "anda": 6004,
      "ille": 6005,
      "như": 6006,
      "THÚC": 6007,
      "huỷ": 6008,
      "Resort": 6009,
      "Tín": 6010,
      "Xác": 6011,
      "bước": 6012,
      "kem": 6013,
      "mắng": 6014,
      "ắm": 6015,
      "đầy": 6016,
      "ứ": 6017,
      "Có": 6018,
      "Còn": 6019,
      "nguội": 6020,
      "Bos": 6021,
      "nhuyễn": 6022,
      "Tuyền": 6023,
      "diện": 6024,
      "hân": 6025,
      "hàn": 6026,
      "liêng": 6027,
      "rượt": 6028,
      "đời": 6029,
      "50m": 6030,
      "nhiễu": 6031,
      "HĐQT": 6032,
      "Paollo": 6033,
      "Liêu": 6034,
      "bs": 6035,
      "ốt": 6036,
      "Đồn": 6037,
      "thản": 6038,
      "ussia": 6039,
      "Sóc": 6040,
      "Ton": 6041,
      "dong": 6042,
      "mép": 6043,
      "đò": 6044,
      "Nhàn": 6045,
      "cụt": 6046,
      "CNN": 6047,
      "Calisto": 6048,
      "Sầm": 6049,
      "Xét": 6050,
      "cưa": 6051,
      "kề": 6052,
      "nạp": 6053,
      "rưỡi": 6054,
      "vế": 6055,
      "yếu": 6056,
      "đả": 6057,
      "thám": 6058,
      "Dj": 6059,
      "Dẫn": 6060,
      "Lên": 6061,
      "Lou": 6062,
      "Sho": 6063,
      "Ul": 6064,
      "dam": 6065,
      "hoay": 6066,
      "ial": 6067,
      "1960": 6068,
      "dogan": 6069,
      "rõ": 6070,
      "hè": 6071,
      "trụ": 6072,
      "urnal": 6073,
      "Hungary": 6074,
      "Huyện": 6075,
      "kiến": 6076,
      "rải": 6077,
      "tz": 6078,
      "xy": 6079,
      "thần": 6080,
      "tial": 6081,
      "ets": 6082,
      "18h30": 6083,
      "Lump": 6084,
      "ridge": 6085,
      "Rich": 6086,
      "1968": 6087,
      "Kuala": 6088,
      "gờm": 6089,
      "Jam": 6090,
      "JMG": 6091,
      "Xứ": 6092,
      "cong": 6093,
      "hăng": 6094,
      "kel": 6095,
      "mus": 6096,
      "ếch": 6097,
      "ngơ": 6098,
      "quật": 6099,
      "Tri": 6100,
      "1945": 6101,
      "nóc": 6102,
      "cúm": 6103,
      "Maria": 6104,
      "eira": 6105,
      "chém": 6106,
      "dưới": 6107,
      "dang": 6108,
      "hít": 6109,
      "lưỡi": 6110,
      "Độc": 6111,
      "thạch": 6112,
      "bảo": 6113,
      "Nigeria": 6114,
      "Bánh": 6115,
      "Dao": 6116,
      "Mức": 6117,
      "Rồng": 6118,
      "dưng": 6119,
      "gậy": 6120,
      "od": 6121,
      "tland": 6122,
      "ồn": 6123,
      "Đấy": 6124,
      "đặn": 6125,
      "́o": 6126,
      "̂́t": 6127,
      "thật": 6128,
      "Thôi": 6129,
      "khiêu": 6130,
      "lòng": 6131,
      "inter": 6132,
      "đôla": 6133,
      "Marc": 6134,
      "VII": 6135,
      "Heung": 6136,
      "đuôi": 6137,
      "Tholot": 6138,
      "Geor": 6139,
      "Borussia": 6140,
      "Lumpur": 6141,
      "Aja": 6142,
      "OC": 6143,
      "Xô": 6144,
      "bực": 6145,
      "sar": 6146,
      "nhục": 6147,
      "phất": 6148,
      "tsu": 6149,
      "ako": 6150,
      "Teera": 6151,
      "Bửu": 6152,
      "Sản": 6153,
      "War": 6154,
      "bấm": 6155,
      "hữu": 6156,
      "láng": 6157,
      "mèo": 6158,
      "nes": 6159,
      "nấy": 6160,
      "đơ": 6161,
      "đàng": 6162,
      "Thử": 6163,
      "tos": 6164,
      "21h": 6165,
      "Bernardo": 6166,
      "Bức": 6167,
      "Hill": 6168,
      "cột": 6169,
      "gõ": 6170,
      "uel": 6171,
      "ngửa": 6172,
      "nhủ": 6173,
      "chùm": 6174,
      "loay": 6175,
      "14h": 6176,
      "Petro": 6177,
      "YouTu": 6178,
      "Tajik": 6179,
      "Pele": 6180,
      "Yêu": 6181,
      "bướ": 6182,
      "lines": 6183,
      "lụt": 6184,
      "mau": 6185,
      "sal": 6186,
      "viếng": 6187,
      "Đua": 6188,
      "Phóng": 6189,
      "Rica": 6190,
      "Ya": 6191,
      "Ý": 6192,
      "kor": 6193,
      "mướt": 6194,
      "ráo": 6195,
      "ud": 6196,
      "Đền": 6197,
      "ngâm": 6198,
      "ngờ": 6199,
      "nhị": 6200,
      "Che": 6201,
      "Pháo": 6202,
      "ore": 6203,
      "imi": 6204,
      "rom": 6205,
      "Vietnamnet": 6206,
      "khuya": 6207,
      "Lukaku": 6208,
      "Hilal": 6209,
      "Den": 6210,
      "Hè": 6211,
      "rã": 6212,
      "Phân": 6213,
      "Khám": 6214,
      "ador": 6215,
      "võ": 6216,
      "Univer": 6217,
      "Peter": 6218,
      "Ajax": 6219,
      "Diệp": 6220,
      "Lượng": 6221,
      "Lượt": 6222,
      "NS": 6223,
      "cày": 6224,
      "hậu": 6225,
      "Trình": 6226,
      "erobic": 6227,
      "Everton": 6228,
      "Gundogan": 6229,
      "gồm": 6230,
      "Tajikistan": 6231,
      "Days": 6232,
      "Hid": 6233,
      "],": 6234,
      "hen": 6235,
      "sầu": 6236,
      "vung": 6237,
      "xót": 6238,
      "ắp": 6239,
      "thất": 6240,
      "gieo": 6241,
      "thuộc": 6242,
      "quyên": 6243,
      "dis": 6244,
      "teta": 6245,
      "Gabri": 6246,
      "Scotland": 6247,
      "Rafaelson": 6248,
      "Jurgen": 6249,
      "Red": 6250,
      "XIII": 6251,
      "ction": 6252,
      "lon": 6253,
      "đâm": 6254,
      "triền": 6255,
      "trái": 6256,
      "ười": 6257,
      "cứa": 6258,
      "Airlines": 6259,
      "Tìm": 6260,
      "lợn": 6261,
      "sách": 6262,
      "chiê": 6263,
      "Thăng": 6264,
      "nghiệm": 6265,
      "liam": 6266,
      "Supa": 6267,
      "vừa": 6268,
      "Feli": 6269,
      "GP": 6270,
      "HO": 6271,
      "Hak": 6272,
      "​​": 6273,
      "Triển": 6274,
      "chui": 6275,
      "boxing": 6276,
      "Arteta": 6277,
      "biểu": 6278,
      "Nếu": 6279,
      "íu": 6280,
      "thốn": 6281,
      "site": 6282,
      "cổ": 6283,
      "Chiang": 6284,
      "Bun": 6285,
      "Cen": 6286,
      "Jon": 6287,
      "kiện": 6288,
      "vực": 6289,
      "Đệ": 6290,
      "trợ": 6291,
      "ến": 6292,
      "Erling": 6293,
      "Frankf": 6294,
      "96": 6295,
      "Dal": 6296,
      "SV": 6297,
      "cốc": 6298,
      "ide": 6299,
      "nền": 6300,
      "sâm": 6301,
      "Đỏ": 6302,
      "Đằng": 6303,
      "derson": 6304,
      "Award": 6305,
      "BI": 6306,
      "Kai": 6307,
      "Stu": 6308,
      "gái": 6309,
      "kiêu": 6310,
      "kẹo": 6311,
      "nốt": 6312,
      "vard": 6313,
      "ways": 6314,
      "thuỷ": 6315,
      "each": 6316,
      "Giành": 6317,
      "essor": 6318,
      "nhượng": 6319,
      "Dong": 6320,
      "Des": 6321,
      "Por": 6322,
      "bồ": 6323,
      "ey": 6324,
      "fessor": 6325,
      "ir": 6326,
      "lận": 6327,
      "lách": 6328,
      "my": 6329,
      "nuốt": 6330,
      "vớt": 6331,
      "nhỉ": 6332,
      "chứng": 6333,
      "trêu": 6334,
      "ract": 6335,
      "ere": 6336,
      "akarta": 6337,
      "ede": 6338,
      "Rio": 6339,
      "Đại": 6340,
      "Frankfurt": 6341,
      "Dư": 6342,
      "Emi": 6343,
      "Hàn": 6344,
      "Mus": 6345,
      "Rập": 6346,
      "Tuân": 6347,
      "nếm": 6348,
      "Đến": 6349,
      "”;": 6350,
      "…”": 6351,
      "Gian": 6352,
      "Giống": 6353,
      "Sara": 6354,
      "2h": 6355,
      "Bam": 6356,
      "Gla": 6357,
      "nập": 6358,
      "xác": 6359,
      "ngậm": 6360,
      "nhậu": 6361,
      "Chữ": 6362,
      "Nhằm": 6363,
      "Nghi": 6364,
      "Khải": 6365,
      "Indra": 6366,
      "banon": 6367,
      "Lebanon": 6368,
      "Mohamed": 6369,
      ")…": 6370,
      "Ed": 6371,
      "Gal": 6372,
      "Rang": 6373,
      "Sar": 6374,
      "gân": 6375,
      "reo": 6376,
      "rét": 6377,
      "viêm": 6378,
      "ãm": 6379,
      "”...": 6380,
      "thậm": 6381,
      "quyền": 6382,
      "ngoa": 6383,
      "17h00": 6384,
      "asu": 6385,
      "data": 6386,
      "Pedro": 6387,
      "94": 6388,
      "Bal": 6389,
      "Cúc": 6390,
      "TB": 6391,
      "Vui": 6392,
      "bìa": 6393,
      "cộng": 6394,
      "lar": 6395,
      "rêu": 6396,
      "seo": 6397,
      "work": 6398,
      "ngợp": 6399,
      "giang": 6400,
      "nghiện": 6401,
      "Chứng": 6402,
      "ise": 6403,
      "1994": 6404,
      "19h00": 6405,
      "Serbia": 6406,
      "YouTube": 6407,
      "Ký": 6408,
      "Món": 6409,
      "Ox": 6410,
      "Sof": 6411,
      "TQ": 6412,
      "Tun": 6413,
      "UY": 6414,
      "stu": 6415,
      "tát": 6416,
      "tằm": 6417,
      "xảo": 6418,
      "̂́": 6419,
      "ẳm": 6420,
      "Chang": 6421,
      "cup": 6422,
      "lãnh": 6423,
      "xuồng": 6424,
      "!\"": 6425,
      "Nổi": 6426,
      "nương": 6427,
      "sập": 6428,
      "vãn": 6429,
      "Đồ": 6430,
      "arm": 6431,
      "lục": 6432,
      "ters": 6433,
      "mark": 6434,
      "nhuần": 6435,
      "Brent": 6436,
      "Antony": 6437,
      "nghĩa": 6438,
      "Djoko": 6439,
      "Ib": 6440,
      "bì": 6441,
      "kèo": 6442,
      "sci": 6443,
      "tẩy": 6444,
      "Đắc": 6445,
      "Quay": 6446,
      "tôi": 6447,
      "thoa": 6448,
      "Djokovic": 6449,
      "Tw": 6450,
      "Var": 6451,
      "ila": 6452,
      "jo": 6453,
      "ray": 6454,
      "rảnh": 6455,
      "phào": 6456,
      "Thia": 6457,
      "loan": 6458,
      "tuỳ": 6459,
      "mục": 6460,
      "Som": 6461,
      "xoa": 6462,
      "Từ": 6463,
      "William": 6464,
      "Palace": 6465,
      "\":": 6466,
      "bong": 6467,
      "jan": 6468,
      "sam": 6469,
      "ồng": 6470,
      "’),": 6471,
      "phen": 6472,
      "Trưa": 6473,
      "sil": 6474,
      "1992": 6475,
      "Gabriel": 6476,
      "98": 6477,
      "Bờ": 6478,
      "Rạch": 6479,
      "dào": 6480,
      "miên": 6481,
      "nản": 6482,
      "ờn": 6483,
      "ựt": 6484,
      "chướng": 6485,
      "thửa": 6486,
      "Trúc": 6487,
      "nằm": 6488,
      "hoặc": 6489,
      "Doham": 6490,
      "Post": 6491,
      "Jeon": 6492,
      "mỉm": 6493,
      "Dohamide": 6494,
      "%).": 6495,
      "900": 6496,
      "Jes": 6497,
      "Măng": 6498,
      "Sử": 6499,
      "Vượng": 6500,
      "Wo": 6501,
      "bệ": 6502,
      "dành": 6503,
      "gg": 6504,
      "liệu": 6505,
      "nhã": 6506,
      "trăn": 6507,
      "Chất": 6508,
      "email": 6509,
      "Khương": 6510,
      "sity": 6511,
      "lẽ": 6512,
      "port": 6513,
      "field": 6514,
      "kíp": 6515,
      "Kiếm": 6516,
      "côn": 6517,
      "hãm": 6518,
      "lép": 6519,
      "Út": 6520,
      "…,": 6521,
      "ngó": 6522,
      "chảo": 6523,
      "giề": 6524,
      "23h": 6525,
      "dier": 6526,
      "ghen": 6527,
      "ashi": 6528,
      "vàng": 6529,
      "berg": 6530,
      "Jude": 6531,
      "130": 6532,
      "4x": 6533,
      "AP": 6534,
      "Hiểu": 6535,
      "Kông": 6536,
      "Niên": 6537,
      "ON": 6538,
      "cẩm": 6539,
      "dẫu": 6540,
      "lea": 6541,
      "via": 6542,
      "racao": 6543,
      "tiến": 6544,
      "cus": 6545,
      "Quách": 6546,
      "taekwondo": 6547,
      "Giấy": 6548,
      "phạt": 6549,
      "khán": 6550,
      "tain": 6551,
      "phí": 6552,
      "Henry": 6553,
      "DI": 6554,
      "Sắc": 6555,
      "Sja": 6556,
      "bài": 6557,
      "mồi": 6558,
      "yr": 6559,
      "Âm": 6560,
      "trút": 6561,
      "giả": 6562,
      "Curacao": 6563,
      "thoả": 6564,
      "sớm": 6565,
      "xuống": 6566,
      "1993": 6567,
      "bert": 6568,
      "Kevin": 6569,
      "Brentford": 6570,
      "F1": 6571,
      "Huân": 6572,
      "MT": 6573,
      "PH": 6574,
      "cúi": 6575,
      "mạ": 6576,
      "ủa": 6577,
      "chấp": 6578,
      "thẳm": 6579,
      "đình": 6580,
      "Qui": 6581,
      "180": 6582,
      "Bản": 6583,
      "Didier": 6584,
      "Santos": 6585,
      "xíu": 6586,
      "SGK": 6587,
      "Irel": 6588,
      "dt": 6589,
      "nâu": 6590,
      "vane": 6591,
      "xắn": 6592,
      "khan": 6593,
      "phổi": 6594,
      "iar": 6595,
      "Sah": 6596,
      "stal": 6597,
      "bóp": 6598,
      "Thị": 6599,
      "Sergio": 6600,
      "vỏn": 6601,
      "Rasmus": 6602,
      "hướng": 6603,
      "Ireland": 6604,
      "DA": 6605,
      "Dis": 6606,
      "Jong": 6607,
      "Nun": 6608,
      "PN": 6609,
      "cent": 6610,
      "râm": 6611,
      "tần": 6612,
      "taro": 6613,
      "đẽ": 6614,
      "đứng": 6615,
      "boo": 6616,
      "̣̂n": 6617,
      "đẹp": 6618,
      "bourg": 6619,
      "1000": 6620,
      "BD": 6621,
      "Cry": 6622,
      "Mem": 6623,
      "Nad": 6624,
      "fic": 6625,
      "õng": 6626,
      "giơ": 6627,
      "Nghiệp": 6628,
      "trả": 6629,
      "have": 6630,
      "Maroc": 6631,
      "võng": 6632,
      "Theera": 6633,
      "llar": 6634,
      "Geovane": 6635,
      "Gustavo": 6636,
      "giềng": 6637,
      "Sjafri": 6638,
      "Ay": 6639,
      "Dòng": 6640,
      "LO": 6641,
      "QĐ": 6642,
      "Tận": 6643,
      "Tạng": 6644,
      "Uru": 6645,
      "bênh": 6646,
      "gn": 6647,
      "hãnh": 6648,
      "ple": 6649,
      "tấm": 6650,
      "nhan": 6651,
      "logi": 6652,
      "cờ": 6653,
      "Phil": 6654,
      "Angel": 6655,
      "HĐND": 6656,
      "5km": 6657,
      "Nội": 6658,
      "cõi": 6659,
      "hé": 6660,
      "hích": 6661,
      "ròng": 6662,
      "thê": 6663,
      "quỳ": 6664,
      "đỉnh": 6665,
      "khoái": 6666,
      "khuẩn": 6667,
      "tưởng": 6668,
      "19h15": 6669,
      "ngự": 6670,
      "Kỹ": 6671,
      "Kiệt": 6672,
      "ces": 6673,
      "ls": 6674,
      "pre": 6675,
      "real": 6676,
      "rẫy": 6677,
      "táng": 6678,
      "Ứng": 6679,
      "nhiệm": 6680,
      "thị": 6681,
      "tini": 6682,
      "chuẩn": 6683,
      "10h": 6684,
      "huống": 6685,
      "Airways": 6686,
      "Aerobic": 6687,
      "Hun": 6688,
      "Lục": 6689,
      "Lis": 6690,
      "Luân": 6691,
      "Sene": 6692,
      "fract": 6693,
      "hầu": 6694,
      "vật": 6695,
      "imo": 6696,
      "TTVN": 6697,
      "Mark": 6698,
      "Marco": 6699,
      "Mah": 6700,
      "dựng": 6701,
      "Journal": 6702,
      "Bình": 6703,
      "Vietravel": 6704,
      "Dường": 6705,
      "Hỏi": 6706,
      "vẫy": 6707,
      "trù": 6708,
      "bas": 6709,
      "ckland": 6710,
      "Eric": 6711,
      "Ramos": 6712,
      "Auckland": 6713,
      "Crystal": 6714,
      "Theerathon": 6715,
      "92": 6716,
      "Bon": 6717,
      "bồng": 6718,
      "cước": 6719,
      "căm": 6720,
      "gỏi": 6721,
      "lười": 6722,
      "mịn": 6723,
      "đất": 6724,
      "ỜI": 6725,
      "thán": 6726,
      "nghệ": 6727,
      "...\"": 6728,
      "ring": 6729,
      "beck": 6730,
      "bơm": 6731,
      "Enrique": 6732,
      "Thiago": 6733,
      "Has": 6734,
      "hước": 6735,
      "lộc": 6736,
      "chưng": 6737,
      "chắc": 6738,
      "uri": 6739,
      "Anthon": 6740,
      "hạn": 6741,
      "nhoáng": 6742,
      "800m": 6743,
      "dink": 6744,
      "knock": 6745,
      "Hiddink": 6746,
      "Senegal": 6747,
      "Anthony": 6748,
      "110": 6749,
      "Cánh": 6750,
      "Kam": 6751,
      "Pang": 6752,
      "Tuyến": 6753,
      "U11": 6754,
      "lờ": 6755,
      "tỉnh": 6756,
      "Gió": 6757,
      "kém": 6758,
      "Bóng": 6759,
      "eroon": 6760,
      "Highlights": 6761,
      "KHÔNG": 6762,
      "saray": 6763,
      "Uruguay": 6764,
      "Cù": 6765,
      "QN": 6766,
      "Wu": 6767,
      "Won": 6768,
      "dép": 6769,
      "ida": 6770,
      "màn": 6771,
      "rập": 6772,
      "sừng": 6773,
      "sson": 6774,
      "Đổng": 6775,
      "….": 6776,
      "…”.": 6777,
      "liễu": 6778,
      "Giải": 6779,
      "nhóm": 6780,
      "Star": 6781,
      "Cameroon": 6782,
      "Valen": 6783,
      "Fulham": 6784,
      "Cố": 6785,
      "hao": 6786,
      "kar": 6787,
      "mít": 6788,
      "rể": 6789,
      "õm": 6790,
      "ềnh": 6791,
      "ngóng": 6792,
      "chờ": 6793,
      "Chọn": 6794,
      "hỏi": 6795,
      "Hoàng": 6796,
      "gót": 6797,
      "vac": 6798,
      "ubli": 6799,
      "Danang": 6800,
      "BĐVN": 6801,
      "Ren": 6802,
      "THC": 6803,
      "eing": 6804,
      "hủ": 6805,
      "ness": 6806,
      "pin": 6807,
      "Đời": 6808,
      "trùm": 6809,
      "khiếm": 6810,
      "khốn": 6811,
      "Trans": 6812,
      "end": 6813,
      "Khán": 6814,
      "come": 6815,
      "sic": 6816,
      "Amster": 6817,
      "Cứu": 6818,
      "Robert": 6819,
      "wait": 6820,
      "Amsterdam": 6821,
      "Xi": 6822,
      "bẩn": 6823,
      "cừ": 6824,
      "dán": 6825,
      "ior": 6826,
      "tăm": 6827,
      "Ôi": 6828,
      "Trân": 6829,
      "chịu": 6830,
      "keting": 6831,
      "risk": 6832,
      "HDV": 6833,
      "!\".": 6834,
      "Jakarta": 6835,
      "Nat": 6836,
      "Win": 6837,
      "lì": 6838,
      "mat": 6839,
      "đạm": 6840,
      "đạc": 6841,
      "ngùi": 6842,
      "phàn": 6843,
      "Thì": 6844,
      "Thỉnh": 6845,
      "ướn": 6846,
      "Chun": 6847,
      "oro": 6848,
      "đoan": 6849,
      "Haz": 6850,
      "VIII": 6851,
      "Mac": 6852,
      "CAND": 6853,
      "nhỏ": 6854,
      "VTV6": 6855,
      "vestre": 6856,
      "Kuwait": 6857,
      "Nutifood": 6858,
      "Merlo": 6859,
      "?\".": 6860,
      "Bul": 6861,
      "CV": 6862,
      "ED": 6863,
      "Gs": 6864,
      "Hồ": 6865,
      "Kẻ": 6866,
      "Mũi": 6867,
      "Ray": 6868,
      "Slo": 6869,
      "SAR": 6870,
      "TW": 6871,
      "ac": 6872,
      "cội": 6873,
      "ganh": 6874,
      "rô": 6875,
      "wing": 6876,
      "quỷ": 6877,
      "ral": 6878,
      "dian": 6879,
      "bah": 6880,
      "suôn": 6881,
      "tổng": 6882,
      "Stein": 6883,
      "hiểu": 6884,
      "THCS": 6885,
      "Tạo": 6886,
      "Vy": 6887,
      "ful": 6888,
      "hố": 6889,
      "hiệp": 6890,
      "rang": 6891,
      "xộn": 6892,
      "zal": 6893,
      "ngói": 6894,
      "nhờ": 6895,
      "chiên": 6896,
      "phao": 6897,
      "cuộn": 6898,
      "cak": 6899,
      "Alf": 6900,
      "Tuchel": 6901,
      "Choi": 6902,
      "Buôn": 6903,
      "ttingham": 6904,
      "Lão": 6905,
      "Rat": 6906,
      "Úc": 6907,
      "mắt": 6908,
      "rim": 6909,
      "ẵm": 6910,
      "cháo": 6911,
      "Macau": 6912,
      "camera": 6913,
      "AT": 6914,
      "MW": 6915,
      "Séc": 6916,
      "WTO": 6917,
      "lấy": 6918,
      "ớc": 6919,
      "thỏm": 6920,
      "Thưa": 6921,
      "rates": 6922,
      "Phí": 6923,
      "giảm": 6924,
      "cú": 6925,
      "...”": 6926,
      "140": 6927,
      "kỹ": 6928,
      "Nottingham": 6929,
      "kovic": 6930,
      "zig": 6931,
      "website": 6932,
      "Phuket": 6933,
      "phố": 6934,
      "Xavi": 6935,
      "Awards": 6936,
      "3x": 6937,
      "F0": 6938,
      "Il": 6939,
      "Mãi": 6940,
      "Pfi": 6941,
      "Smi": 6942,
      "blog": 6943,
      "lem": 6944,
      "qi": 6945,
      "ăk": 6946,
      "chang": 6947,
      "Thụy": 6948,
      "ington": 6949,
      "ande": 6950,
      "vài": 6951,
      "Manila": 6952,
      "cánh": 6953,
      "fica": 6954,
      "97": 6955,
      "Lạng": 6956,
      "NQ": 6957,
      "Open": 6958,
      "Suối": 6959,
      "bã": 6960,
      "gầy": 6961,
      "lít": 6962,
      "tê": 6963,
      "yasu": 6964,
      "Ấy": 6965,
      "thiền": 6966,
      "quây": 6967,
      "Thể": 6968,
      "raw": 6969,
      "doạ": 6970,
      "toang": 6971,
      "1991": 6972,
      "bourne": 6973,
      "Pfizer": 6974,
      "./": 6975,
      "Bhu": 6976,
      "Beach": 6977,
      "Nest": 6978,
      "bầy": 6979,
      "cis": 6980,
      "dỡ": 6981,
      "nao": 6982,
      "tùng": 6983,
      "Điều": 6984,
      "”?": 6985,
      "nhồi": 6986,
      "trĩ": 6987,
      "trek": 6988,
      "Thác": 6989,
      "Chàng": 6990,
      "Ngũ": 6991,
      "chú": 6992,
      "uss": 6993,
      "tối": 6994,
      "bùn": 6995,
      "dìu": 6996,
      "Varane": 6997,
      "SARS": 6998,
      "Gor": 6999,
      "Hộ": 7000,
      "Mỏ": 7001,
      "kệ": 7002,
      "rễ": 7003,
      "ngẫm": 7004,
      "chắt": 7005,
      "chẳng": 7006,
      "Tha": 7007,
      "Chải": 7008,
      "like": 7009,
      "Catal": 7010,
      "Ulsan": 7011,
      "Mur": 7012,
      "MLS": 7013,
      "Ranh": 7014,
      "ft": 7015,
      "hưởng": 7016,
      "nới": 7017,
      "nis": 7018,
      "ning": 7019,
      "str": 7020,
      "sụt": 7021,
      "vá": 7022,
      "Ngồi": 7023,
      "10m": 7024,
      "tourist": 7025,
      "ký": 7026,
      "Los": 7027,
      "Link": 7028,
      "Roberto": 7029,
      "Yangon": 7030,
      "Pakistan": 7031,
      "Cuốn": 7032,
      "Cru": 7033,
      "Fred": 7034,
      "Jen": 7035,
      "Nou": 7036,
      "Sky": 7037,
      "V2": 7038,
      "gốm": 7039,
      "sộ": 7040,
      "té": 7041,
      "Đỉnh": 7042,
      "chạp": 7043,
      "Khung": 7044,
      "Nghĩ": 7045,
      "nold": 7046,
      "research": 7047,
      "Lyn": 7048,
      "zuki": 7049,
      "Petrovic": 7050,
      "Bamboo": 7051,
      "Jesus": 7052,
      "Bát": 7053,
      "Dạ": 7054,
      "Hân": 7055,
      "Hano": 7056,
      "Zam": 7057,
      "dẻo": 7058,
      "rd": 7059,
      "sờ": 7060,
      "vali": 7061,
      "đũa": 7062,
      "ngài": 7063,
      "thy": 7064,
      "erer": 7065,
      "Lanka": 7066,
      "Vì": 7067,
      "Haver": 7068,
      "beu": 7069,
      "press": 7070,
      "Federer": 7071,
      "AF": 7072,
      "Mất": 7073,
      "Ve": 7074,
      "fo": 7075,
      "tter": 7076,
      "Đẩy": 7077,
      "Pho": 7078,
      "Cuba": 7079,
      "luộc": 7080,
      "buk": 7081,
      "chạm": 7082,
      "steo": 7083,
      "star": 7084,
      "phía": 7085,
      "cio": 7086,
      "HDBank": 7087,
      "Florence": 7088,
      "Zico": 7089,
      "Bàng": 7090,
      "Bill": 7091,
      "CI": 7092,
      "Cốc": 7093,
      "Rừng": 7094,
      "mic": 7095,
      "Đào": 7096,
      "nhàn": 7097,
      "Chàm": 7098,
      "ors": 7099,
      "sey": 7100,
      "VIP": 7101,
      "Popo": 7102,
      "Abdul": 7103,
      "BĐ": 7104,
      "Bla": 7105,
      "Eden": 7106,
      "Gri": 7107,
      "Lí": 7108,
      "Mua": 7109,
      "Sắp": 7110,
      "Tông": 7111,
      "Uỷ": 7112,
      "day": 7113,
      "lầy": 7114,
      "lụy": 7115,
      "xào": 7116,
      "khẽ": 7117,
      "nặng": 7118,
      "góp": 7119,
      "main": 7120,
      "link": 7121,
      "Paralympic": 7122,
      "Hanoi": 7123,
      "Havertz": 7124,
      "Ari": 7125,
      "Ảnh": 7126,
      "Bel": 7127,
      "Bil": 7128,
      "Eng": 7129,
      "cưỡi": 7130,
      "dưa": 7131,
      "lt": 7132,
      "tal": 7133,
      "váy": 7134,
      "well": 7135,
      "Đâu": 7136,
      "giằng": 7137,
      "quí": 7138,
      "emy": 7139,
      "ghê": 7140,
      "tuột": 7141,
      "hoạt": 7142,
      "Martial": 7143,
      "Leip": 7144,
      "national": 7145,
      "page": 7146,
      "Garvan": 7147,
      "buri": 7148,
      "Alexandre": 7149,
      "Leipzig": 7150,
      "()": 7151,
      "Binh": 7152,
      "Clau": 7153,
      "Lấy": 7154,
      "MS": 7155,
      "Rời": 7156,
      "Wei": 7157,
      "bục": 7158,
      "biếu": 7159,
      "gàng": 7160,
      "jet": 7161,
      "way": 7162,
      "nhức": 7163,
      "thắm": 7164,
      "sion": 7165,
      "una": 7166,
      "bul": 7167,
      "đươ": 7168,
      "Noel": 7169,
      "Berna": 7170,
      "Fergu": 7171,
      "Melbourne": 7172,
      "Wolves": 7173,
      "91": 7174,
      "Adi": 7175,
      "CĐ": 7176,
      "Tai": 7177,
      "Vâng": 7178,
      "cộ": 7179,
      "lầu": 7180,
      "nar": 7181,
      "vòm": 7182,
      "chững": 7183,
      "khắt": 7184,
      "giặt": 7185,
      "aica": 7186,
      "vio": 7187,
      "Indo": 7188,
      "bank": 7189,
      "Roy": 7190,
      "not": 7191,
      "Karate": 7192,
      "LĐBĐVN": 7193,
      "Jamaica": 7194,
      "Ibrah": 7195,
      "350": 7196,
      "Bồ": 7197,
      "Cơn": 7198,
      "Etihad": 7199,
      "Nàng": 7200,
      "gne": 7201,
      "điềm": 7202,
      "nhô": 7203,
      "phác": 7204,
      "Hàm": 7205,
      "Thuỷ": 7206,
      "leng": 7207,
      "Mikel": 7208,
      "zakh": 7209,
      "Daniel": 7210,
      "SBD": 7211,
      "cắn": 7212,
      "ms": 7213,
      "nôi": 7214,
      "rót": 7215,
      "sào": 7216,
      "vượng": 7217,
      "ửa": 7218,
      "giăng": 7219,
      "Thằng": 7220,
      "Chào": 7221,
      "Phục": 7222,
      "esa": 7223,
      "erre": 7224,
      "Khổng": 7225,
      "Hotel": 7226,
      "luận": 7227,
      "buồm": 7228,
      "kế": 7229,
      "nhìn": 7230,
      "nhuộm": 7231,
      "ental": 7232,
      "karate": 7233,
      "Morgan": 7234,
      "1969": 7235,
      "Kazakh": 7236,
      "Berlin": 7237,
      "Schmi": 7238,
      "Steinbeck": 7239,
      "Bữa": 7240,
      "Gala": 7241,
      "Wash": 7242,
      "biến": 7243,
      "sững": 7244,
      "úm": 7245,
      "Thành": 7246,
      "Chạy": 7247,
      "Phông": 7248,
      "logy": 7249,
      "22h": 7250,
      "Villar": 7251,
      "Tom": 7252,
      "Luka": 7253,
      "cedo": 7254,
      "nghỉ": 7255,
      "Brand": 7256,
      "3x3": 7257,
      "BBC": 7258,
      "Cang": 7259,
      "Pin": 7260,
      "Sto": 7261,
      "Tỵ": 7262,
      "côi": 7263,
      "vòi": 7264,
      "Ưu": 7265,
      "Ước": 7266,
      "”!": 7267,
      "chát": 7268,
      "chet": 7269,
      "Phiên": 7270,
      "tức": 7271,
      "Viễn": 7272,
      "pper": 7273,
      "ree": 7274,
      "Joao": 7275,
      "1971": 7276,
      "Suphan": 7277,
      "Guam": 7278,
      "Steven": 7279,
      "protein": 7280,
      "Caicedo": 7281,
      "Panama": 7282,
      "Ahmad": 7283,
      "effi": 7284,
      "trekking": 7285,
      "CU": 7286,
      "CỦ": 7287,
      "Cặp": 7288,
      "EM": 7289,
      "Ei": 7290,
      "Gede": 7291,
      "Hal": 7292,
      "Mộng": 7293,
      "Nỗ": 7294,
      "RT": 7295,
      "Tao": 7296,
      "YT": 7297,
      "gor": 7298,
      "óp": 7299,
      "“.": 7300,
      "thêu": 7301,
      "Thao": 7302,
      "Triết": 7303,
      "lie": 7304,
      "đảo": 7305,
      "160": 7306,
      "Arena": 7307,
      "suất": 7308,
      "Chí": 7309,
      "Sanche": 7310,
      "phụ": 7311,
      "stagram": 7312,
      "Karim": 7313,
      "CEO": 7314,
      "Alexander": 7315,
      "rơm": 7316,
      "Glazer": 7317,
      "markt": 7318,
      "cừu": 7319,
      "vestream": 7320,
      "Schmidt": 7321,
      "Washington": 7322,
      "CỦA": 7323,
      "'.": 7324,
      "9h": 7325,
      "BO": 7326,
      "Bol": 7327,
      "GI": 7328,
      "Mona": 7329,
      "Tức": 7330,
      "Wang": 7331,
      "from": 7332,
      "̀o": 7333,
      "champ": 7334,
      "giống": 7335,
      "comp": 7336,
      "phản": 7337,
      "VNCH": 7338,
      "Arnold": 7339,
      "note": 7340,
      "hồi": 7341,
      "Shaw": 7342,
      "Felix": 7343,
      "Bhutan": 7344,
      "Lynch": 7345,
      "AN": 7346,
      "Adri": 7347,
      "Bs": 7348,
      "Cỏ": 7349,
      "Hạng": 7350,
      "MM": 7351,
      "bóc": 7352,
      "cáng": 7353,
      "cồn": 7354,
      "lối": 7355,
      "nôn": 7356,
      "rê": 7357,
      "sel": 7358,
      "vú": 7359,
      "vứt": 7360,
      "xăm": 7361,
      "ƯỢ": 7362,
      "thề": 7363,
      "phế": 7364,
      "dovic": 7365,
      "Vietjet": 7366,
      "Mobi": 7367,
      "wijk": 7368,
      "tịt": 7369,
      "Daily": 7370,
      "bướm": 7371,
      "Villarreal": 7372,
      "Dấu": 7373,
      "Icel": 7374,
      "Scho": 7375,
      "TẠ": 7376,
      "Zin": 7377,
      "ô": 7378,
      "sảnh": 7379,
      "vạ": 7380,
      "’)": 7381,
      "khắc": 7382,
      "rak": 7383,
      "khoán": 7384,
      "tube": 7385,
      "nacho": 7386,
      "Grab": 7387,
      "OOOO": 7388,
      "Ahmed": 7389,
      "Victoria": 7390,
      "University": 7391,
      "%),": 7392,
      "93": 7393,
      "DS": 7394,
      "Eli": 7395,
      "HP": 7396,
      "Kết": 7397,
      "Las": 7398,
      "Sci": 7399,
      "rộng": 7400,
      "tụng": 7401,
      "ngát": 7402,
      "nhấp": 7403,
      "truất": 7404,
      "quẩn": 7405,
      "luật": 7406,
      "30m": 7407,
      "Cara": 7408,
      "Garnacho": 7409,
      "Peru": 7410,
      "Honda": 7411,
      "Iceland": 7412,
      "Ci": 7413,
      "Lớp": 7414,
      "Tik": 7415,
      "Uyên": 7416,
      "Wushu": 7417,
      "fair": 7418,
      "ráp": 7419,
      "tản": 7420,
      "uỷ": 7421,
      "̂̀": 7422,
      "Trại": 7423,
      "Nhựt": 7424,
      "thúc": 7425,
      "1954": 7426,
      "10km": 7427,
      "livestream": 7428,
      "16h30": 7429,
      "Marwijk": 7430,
      "dứt": 7431,
      "Shei": 7432,
      "mẹ": 7433,
      "Judo": 7434,
      "Nico": 7435,
      "Khoảnh": 7436,
      "Louis": 7437,
      "Teerasil": 7438,
      "Alfred": 7439,
      "Ferguson": 7440,
      "Dựa": 7441,
      "kiếp": 7442,
      "níu": 7443,
      "oxy": 7444,
      "đuốc": 7445,
      "Walsh": 7446,
      "kiếm": 7447,
      "Sahako": 7448,
      "Smith": 7449,
      "Kazakhstan": 7450,
      "Glo": 7451,
      "Mậu": 7452,
      "cỏi": 7453,
      "gba": 7454,
      "lèo": 7455,
      "neo": 7456,
      "rầm": 7457,
      "ẫ": 7458,
      "ẫng": 7459,
      "chế": 7460,
      "phai": 7461,
      "Kha": 7462,
      "CoV": 7463,
      "Town": 7464,
      "dữ": 7465,
      "xoáy": 7466,
      "Benfica": 7467,
      "Ittihad": 7468,
      "Walker": 7469,
      "Atal": 7470,
      "Platini": 7471,
      "thiếu": 7472,
      "steopor": 7473,
      "Suphanat": 7474,
      "Cano": 7475,
      "Dầu": 7476,
      "biếc": 7477,
      "cọc": 7478,
      "has": 7479,
      "méo": 7480,
      "zar": 7481,
      "Đam": 7482,
      "thót": 7483,
      "phà": 7484,
      "Nhiệt": 7485,
      "Nhắc": 7486,
      "thic": 7487,
      "Hou": 7488,
      "sou": 7489,
      "Hải": 7490,
      "gọi": 7491,
      "Eriksen": 7492,
      "Songk": 7493,
      "Nestlé": 7494,
      "Bernabeu": 7495,
      "CM": 7496,
      "Dra": 7497,
      "Dun": 7498,
      "Hạt": 7499,
      "Ir": 7500,
      "Ola": 7501,
      "Sino": 7502,
      "bừa": 7503,
      "wor": 7504,
      "xua": 7505,
      "đố": 7506,
      "khiết": 7507,
      "Thẻ": 7508,
      "dom": 7509,
      "15h30": 7510,
      "cán": 7511,
      "Loại": 7512,
      "International": 7513,
      "pera": 7514,
      "Rodrigo": 7515,
      "KSVN": 7516,
      "fracture": 7517,
      "Aung": 7518,
      "Bridge": 7519,
      "Cel": 7520,
      "Dùng": 7521,
      "Jim": 7522,
      "bôi": 7523,
      "bọt": 7524,
      "rỗi": 7525,
      "tà": 7526,
      "vút": 7527,
      "ÀY": 7528,
      "đục": 7529,
      "ngút": 7530,
      "ngành": 7531,
      "nhược": 7532,
      "chày": 7533,
      "chiều": 7534,
      "củi": 7535,
      "suốt": 7536,
      "gaard": 7537,
      "ngủi": 7538,
      "Brad": 7539,
      "ên": 7540,
      "Angkor": 7541,
      "Jeonbuk": 7542,
      "Sanchez": 7543,
      "Bat": 7544,
      "Cán": 7545,
      "Sung": 7546,
      "bái": 7547,
      "diều": 7548,
      "dấn": 7549,
      "lệ": 7550,
      "đê": 7551,
      "khỉ": 7552,
      "giế": 7553,
      "ishi": 7554,
      "Tok": 7555,
      "Luang": 7556,
      "Soci": 7557,
      "Suzuki": 7558,
      "Francis": 7559,
      "ttle": 7560,
      "Forest": 7561,
      "Nunez": 7562,
      "Jung": 7563,
      "Lộ": 7564,
      "Ryan": 7565,
      "Tịnh": 7566,
      "Xúc": 7567,
      "bón": 7568,
      "nang": 7569,
      "xơi": 7570,
      "Ân": 7571,
      "ẩy": 7572,
      "đao": 7573,
      "đẫm": 7574,
      "ngục": 7575,
      "cher": 7576,
      "thầy": 7577,
      "ườm": 7578,
      "iềng": 7579,
      "Trò": 7580,
      "oni": 7581,
      "Ngộ": 7582,
      "tỏ": 7583,
      "Instagram": 7584,
      "lạ": 7585,
      "phủi": 7586,
      "Mari": 7587,
      "Rod": 7588,
      "sản": 7589,
      "Mara": 7590,
      "Rath": 7591,
      "huấn": 7592,
      "Fagan": 7593,
      "iden": 7594,
      "Charles": 7595,
      "George": 7596,
      "Atalanta": 7597,
      "giếng": 7598,
      "8h": 7599,
      "Cư": 7600,
      "HIV": 7601,
      "Pisa": 7602,
      "Slam": 7603,
      "ee": 7604,
      "kè": 7605,
      "mác": 7606,
      "mải": 7607,
      "nửa": 7608,
      "quyện": 7609,
      "rành": 7610,
      "rạp": 7611,
      "Áp": 7612,
      "đong": 7613,
      "lim": 7614,
      "tưới": 7615,
      "Thuột": 7616,
      "Luông": 7617,
      "100km": 7618,
      "osis": 7619,
      "zio": 7620,
      "nỗ": 7621,
      "Lautaro": 7622,
      "CV9": 7623,
      "Sheikh": 7624,
      "?”,": 7625,
      "?\",": 7626,
      "Cổng": 7627,
      "DNA": 7628,
      "Gua": 7629,
      "Nậm": 7630,
      "ab": 7631,
      "dứa": 7632,
      "dần": 7633,
      "ep": 7634,
      "mành": 7635,
      "mẩn": 7636,
      "ogo": 7637,
      "Đặt": 7638,
      "chọi": 7639,
      "chat": 7640,
      "khang": 7641,
      "ain": 7642,
      "Người": 7643,
      "tịch": 7644,
      "tican": 7645,
      "ery": 7646,
      "House": 7647,
      "đỏ": 7648,
      "18h00": 7649,
      "ical": 7650,
      "bot": 7651,
      "Leon": 7652,
      "gate": 7653,
      "Conte": 7654,
      "National": 7655,
      "Nations": 7656,
      "vía": 7657,
      "đúng": 7658,
      "1966": 7659,
      "1985": 7660,
      "Vatican": 7661,
      "Ghana": 7662,
      "fermarkt": 7663,
      "Zambia": 7664,
      "được": 7665,
      "Biệt": 7666,
      "Ecu": 7667,
      "PA": 7668,
      "Rol": 7669,
      "ira": 7670,
      "lốc": 7671,
      "lẫn": 7672,
      "nạt": 7673,
      "tầm": 7674,
      "văng": 7675,
      "xb": 7676,
      "̛́i": 7677,
      "thạo": 7678,
      "phanh": 7679,
      "nghẹn": 7680,
      "Christi": 7681,
      "arl": 7682,
      "TTQG": 7683,
      "buồng": 7684,
      "Com": 7685,
      "eds": 7686,
      "velo": 7687,
      "1973": 7688,
      "Rigi": 7689,
      "lưới": 7690,
      "Cambo": 7691,
      "mini": 7692,
      "MILO": 7693,
      "Antonio": 7694,
      "Moses": 7695,
      "Monaco": 7696,
      "steoporosis": 7697,
      "Ecuador": 7698,
      "EO": 7699,
      "Evan": 7700,
      "Ekan": 7701,
      "Str": 7702,
      "kiềm": 7703,
      "pu": 7704,
      "rồ": 7705,
      "rụng": 7706,
      "zan": 7707,
      "thà": 7708,
      "giũa": 7709,
      "Chen": 7710,
      "China": 7711,
      "Nhiều": 7712,
      "ese": 7713,
      "dives": 7714,
      "Khê": 7715,
      "ville": 7716,
      "Ngọc": 7717,
      "Sĩ": 7718,
      "Davis": 7719,
      "Mori": 7720,
      "varez": 7721,
      "Delta": 7722,
      "những": 7723,
      "Ekanit": 7724,
      "Biến": 7725,
      "Heat": 7726,
      "Istan": 7727,
      "Tak": 7728,
      "Vai": 7729,
      "ah": 7730,
      "app": 7731,
      "búa": 7732,
      "ép": 7733,
      "nỉ": 7734,
      "ợm": 7735,
      "trực": 7736,
      "aux": 7737,
      "Ngắm": 7738,
      "iết": 7739,
      "Giấc": 7740,
      "trạng": 7741,
      "mạng": 7742,
      "cứu": 7743,
      "TCDL": 7744,
      "Angeles": 7745,
      "Hazard": 7746,
      "BT": 7747,
      "Nền": 7748,
      "Nâng": 7749,
      "Nxb": 7750,
      "Ol": 7751,
      "bone": 7752,
      "dd": 7753,
      "kỵ": 7754,
      "lỏi": 7755,
      "miêu": 7756,
      "sli": 7757,
      "ÌNH": 7758,
      "Đội": 7759,
      "nhập": 7760,
      "phụng": 7761,
      "Nhảy": 7762,
      "Phụng": 7763,
      "alleng": 7764,
      "inc": 7765,
      "down": 7766,
      "tứ": 7767,
      "ism": 7768,
      "laken": 7769,
      "Bandovic": 7770,
      "marketing": 7771,
      "quýt": 7772,
      "Interlaken": 7773,
      "THTT": 7774,
      "Pochet": 7775,
      "Professor": 7776,
      "Diaz": 7777,
      "Simon": 7778,
      "Hills": 7779,
      "Canoeing": 7780,
      "Bet": 7781,
      "Gọi": 7782,
      "Rea": 7783,
      "RCT": 7784,
      "Spa": 7785,
      "TỰ": 7786,
      "Whi": 7787,
      "wo": 7788,
      "xấp": 7789,
      "chậu": 7790,
      "chắn": 7791,
      "trói": 7792,
      "hos": 7793,
      "ias": 7794,
      "dòng": 7795,
      "eman": 7796,
      "đón": 7797,
      "Bae": 7798,
      "Leeds": 7799,
      "CP10": 7800,
      "bệnh": 7801,
      "khuynh": 7802,
      "study": 7803,
      "Pochettino": 7804,
      "AZ": 7805,
      "Hall": 7806,
      "Mảng": 7807,
      "Máy": 7808,
      "OS": 7809,
      "Việc": 7810,
      "bết": 7811,
      "eth": 7812,
      "keo": 7813,
      "lùm": 7814,
      "sáp": 7815,
      "vơi": 7816,
      "vắng": 7817,
      "zza": 7818,
      "̃o": 7819,
      "ngẩn": 7820,
      "nhe": 7821,
      "nhổ": 7822,
      "nhẹn": 7823,
      "Thức": 7824,
      "Thế": 7825,
      "2027": 7826,
      "oren": 7827,
      "this": 7828,
      "ello": 7829,
      "ast": 7830,
      "Cour": 7831,
      "Alvarez": 7832,
      "tố": 7833,
      "Sir": 7834,
      "Muham": 7835,
      "itter": 7836,
      "1988": 7837,
      "1989": 7838,
      "̛ời": 7839,
      "jitsu": 7840,
      "Saigontourist": 7841,
      "Prabang": 7842,
      "champs": 7843,
      "Cambodia": 7844,
      "Far": 7845,
      "Gụ": 7846,
      "Mối": 7847,
      "hấp": 7848,
      "liệt": 7849,
      "mía": 7850,
      "nứt": 7851,
      "oải": 7852,
      "ruổi": 7853,
      "sầm": 7854,
      "wal": 7855,
      "ĐỘ": 7856,
      "ngạch": 7857,
      "lock": 7858,
      "cabin": 7859,
      "uiz": 7860,
      "Maldives": 7861,
      "Marse": 7862,
      "very": 7863,
      "ngược": 7864,
      "kit": 7865,
      "Đoan": 7866,
      "Emirates": 7867,
      "iards": 7868,
      "Istanbul": 7869,
      ".’": 7870,
      "EN": 7871,
      "Mắt": 7872,
      "Mak": 7873,
      "Vang": 7874,
      "Vốn": 7875,
      "bới": 7876,
      "dan": 7877,
      "gr": 7878,
      "lắt": 7879,
      "let": 7880,
      "sáo": 7881,
      "sus": 7882,
      "giục": 7883,
      "cóc": 7884,
      "thích": 7885,
      "...)": 7886,
      "chị": 7887,
      "led": 7888,
      "Albert": 7889,
      "km2": 7890,
      "xúc": 7891,
      "xoài": 7892,
      "Rapha": 7893,
      "cano": 7894,
      "Jean": 7895,
      "Sự": 7896,
      "Graham": 7897,
      "Pencak": 7898,
      "CCB": 7899,
      "360": 7900,
      "9X": 7901,
      "Ala": 7902,
      "Bou": 7903,
      "CD": 7904,
      "Cải": 7905,
      "Dim": 7906,
      "LH": 7907,
      "Má": 7908,
      "QL": 7909,
      "QBV": 7910,
      "Ter": 7911,
      "Vis": 7912,
      "banh": 7913,
      "cấy": 7914,
      "gồng": 7915,
      "jam": 7916,
      "kìm": 7917,
      "pton": 7918,
      "pit": 7919,
      "rời": 7920,
      "sti": 7921,
      "ug": 7922,
      "uk": 7923,
      "xài": 7924,
      "xịt": 7925,
      "Điệp": 7926,
      "Đăk": 7927,
      "ởi": 7928,
      "̆n": 7929,
      "khử": 7930,
      "rat": 7931,
      "Khiêm": 7932,
      "tation": 7933,
      "cola": 7934,
      "ime": 7935,
      "dona": 7936,
      "Chỉ": 7937,
      "xoá": 7938,
      "Mont": 7939,
      "Michelin": 7940,
      "Olaha": 7941,
      "Gwang": 7942,
      "Jona": 7943,
      "Kel": 7944,
      "Lựa": 7945,
      "Mạng": 7946,
      "QH": 7947,
      "Tượng": 7948,
      "cli": 7949,
      "py": 7950,
      "par": 7951,
      "rì": 7952,
      "súc": 7953,
      "sur": 7954,
      "tẻ": 7955,
      "tận": 7956,
      "vân": 7957,
      "Đáp": 7958,
      "đào": 7959,
      "ụn": 7960,
      "”)": 7961,
      "ngụy": 7962,
      "thuy": 7963,
      "giỗ": 7964,
      "Chuyển": 7965,
      "Ngọ": 7966,
      "tien": 7967,
      "HLTTQG": 7968,
      "nhào": 7969,
      "cạnh": 7970,
      "đạt": 7971,
      "ilton": 7972,
      "Mane": 7973,
      "Life": 7974,
      "Alps": 7975,
      "đền": 7976,
      "Diogo": 7977,
      "ffet": 7978,
      "1964": 7979,
      "màu": 7980,
      "Adam": 7981,
      "Nadal": 7982,
      "Marseille": 7983,
      "Azer": 7984,
      "BK": 7985,
      "Bale": 7986,
      "Dr": 7987,
      "Hernand": 7988,
      "Kịch": 7989,
      "Kal": 7990,
      "Rau": 7991,
      "XEM": 7992,
      "hun": 7993,
      "hổng": 7994,
      "lội": 7995,
      "mớ": 7996,
      "mẫn": 7997,
      "sặc": 7998,
      "uke": 7999,
      "vol": 8000,
      "ẩm": 8001,
      "”…": 8002,
      "nhòa": 8003,
      "chok": 8004,
      "Tro": 8005,
      "Ngài": 8006,
      "nhàm": 8007,
      "vụn": 8008,
      "Rowing": 8009,
      "Chính": 8010,
      "1965": 8011,
      "chenko": 8012,
      "Germain": 8013,
      "dicine": 8014,
      "temala": 8015,
      "Griez": 8016,
      "ƯỢC": 8017,
      "TikTok": 8018,
      "Guatemala": 8019,
      "Raphael": 8020,
      "Mưa": 8021,
      "TU": 8022,
      "her": 8023,
      "mìn": 8024,
      "nắp": 8025,
      "sành": 8026,
      "vn": 8027,
      "xê": 8028,
      "đẳng": 8029,
      "phì": 8030,
      "phượng": 8031,
      "phồn": 8032,
      "phone": 8033,
      "quần": 8034,
      "Triền": 8035,
      "Chửng": 8036,
      "socia": 8037,
      "labo": 8038,
      "hoạch": 8039,
      "ealish": 8040,
      "Họp": 8041,
      "nó": 8042,
      "oka": 8043,
      "Super": 8044,
      "Fir": 8045,
      "1984": 8046,
      "Carlos": 8047,
      "Đoạn": 8048,
      "shop": 8049,
      "Vincent": 8050,
      "Grealish": 8051,
      "Klok": 8052,
      "latter": 8053,
      "Christian": 8054,
      "Jonathan": 8055,
      "Hernandez": 8056,
      "Griezmann": 8057,
      "\"...": 8058,
      "Ath": 8059,
      "By": 8060,
      "Lẽ": 8061,
      "Mù": 8062,
      "Sw": 8063,
      "TE": 8064,
      "WHO": 8065,
      "Xương": 8066,
      "tánh": 8067,
      "tua": 8068,
      "Đứa": 8069,
      "ĐƯỢC": 8070,
      "chắp": 8071,
      "thưởng": 8072,
      "trệ": 8073,
      "ando": 8074,
      "Thang": 8075,
      "Quoc": 8076,
      "die": 8077,
      "11h": 8078,
      "Lucas": 8079,
      "rant": 8080,
      "Chúng": 8081,
      "Fabio": 8082,
      "Nova": 8083,
      "vùng": 8084,
      "1986": 8085,
      "Guardian": 8086,
      "Carlo": 8087,
      "mỉa": 8088,
      "Deschamps": 8089,
      "Cruz": 8090,
      "?)": 8091,
      "BG": 8092,
      "RA": 8093,
      "VE": 8094,
      "VTC": 8095,
      "càn": 8096,
      "dấu": 8097,
      "lóc": 8098,
      "lẫm": 8099,
      "publi": 8100,
      "Đốc": 8101,
      "Đầm": 8102,
      "nhơ": 8103,
      "nhịn": 8104,
      "trồ": 8105,
      "tràng": 8106,
      "phiến": 8107,
      "Trạm": 8108,
      "vốn": 8109,
      "170": 8110,
      "đâ": 8111,
      "khoản": 8112,
      "Cả": 8113,
      "Harvard": 8114,
      "1982": 8115,
      "Gothic": 8116,
      "lỗi": 8117,
      "hiểm": 8118,
      "graph": 8119,
      "Junior": 8120,
      "Muhammad": 8121,
      "450": 8122,
      "Ele": 8123,
      "NĐ": 8124,
      "Oce": 8125,
      "Tầm": 8126,
      "Vẻ": 8127,
      "calo": 8128,
      "dăm": 8129,
      "sảng": 8130,
      "tủi": 8131,
      "xịn": 8132,
      "zzi": 8133,
      "ém": 8134,
      "try": 8135,
      "rael": 8136,
      "tip": 8137,
      "Hoon": 8138,
      "buffet": 8139,
      "đổ": 8140,
      "moso": 8141,
      "Tiger": 8142,
      "̛ơng": 8143,
      "UNWTO": 8144,
      "desh": 8145,
      "Israel": 8146,
      "Taylor": 8147,
      "Nature": 8148,
      "Black": 8149,
      "Brandao": 8150,
      "Azerbai": 8151,
      "Agu": 8152,
      "Bọn": 8153,
      "Kang": 8154,
      "Tốc": 8155,
      "bèn": 8156,
      "brea": 8157,
      "bưởi": 8158,
      "cri": 8159,
      "hiên": 8160,
      "hẫng": 8161,
      "mướn": 8162,
      "rỉ": 8163,
      "rằm": 8164,
      "tớ": 8165,
      "tâng": 8166,
      "xôn": 8167,
      "trinh": 8168,
      "trời": 8169,
      "amo": 8170,
      "Chồng": 8171,
      "gues": 8172,
      "tỏa": 8173,
      "trip": 8174,
      "TDDC": 8175,
      "VIDEO": 8176,
      "Championship": 8177,
      "Pape": 8178,
      "embele": 8179,
      "Richard": 8180,
      "Transfermarkt": 8181,
      "Dọc": 8182,
      "Dembele": 8183,
      "Ea": 8184,
      "HI": 8185,
      "Osen": 8186,
      "Stan": 8187,
      "Saka": 8188,
      "ges": 8189,
      "tặc": 8190,
      "tạc": 8191,
      "ẽn": 8192,
      "trèo": 8193,
      "quấn": 8194,
      "Chấp": 8195,
      "khoang": 8196,
      "lity": 8197,
      "solo": 8198,
      "cad": 8199,
      "ade": 8200,
      "ports": 8201,
      "sum": 8202,
      "Marcus": 8203,
      "Luke": 8204,
      "Buff": 8205,
      "lược": 8206,
      "fanpage": 8207,
      "Hamilton": 8208,
      "France": 8209,
      "Fox": 8210,
      "Ceres": 8211,
      "Popov": 8212,
      ",”": 8213,
      "Cấm": 8214,
      "Elo": 8215,
      "PCT": 8216,
      "Tốt": 8217,
      "Wim": 8218,
      "Yam": 8219,
      "bali": 8220,
      "fu": 8221,
      "mịt": 8222,
      "nấm": 8223,
      "rình": 8224,
      "ện": 8225,
      "ngồi": 8226,
      "Chat": 8227,
      "eno": 8228,
      "không": 8229,
      "ghềnh": 8230,
      "Nguyen": 8231,
      "imal": 8232,
      "imhen": 8233,
      "2020Vòng": 8234,
      "Doping": 8235,
      "ols": 8236,
      "eda": 8237,
      "Sheffi": 8238,
      "mét": 8239,
      "hút": 8240,
      "Gold": 8241,
      "ramo": 8242,
      "rasin": 8243,
      "Burn": 8244,
      "Lyon": 8245,
      "Shah": 8246,
      "Osimhen": 8247,
      "Jordi": 8248,
      "Hassan": 8249,
      "trĩu": 8250,
      "Songkrasin": 8251,
      "Sheffield": 8252,
      "BM": 8253,
      "Blatter": 8254,
      "Nice": 8255,
      "Opera": 8256,
      "Un": 8257,
      "bọ": 8258,
      "bụt": 8259,
      "gắm": 8260,
      "hă": 8261,
      "hông": 8262,
      "hổi": 8263,
      "kền": 8264,
      "mấu": 8265,
      "rem": 8266,
      "váng": 8267,
      "đẩy": 8268,
      "ngạt": 8269,
      "thối": 8270,
      "thập": 8271,
      "Thăm": 8272,
      "tiê": 8273,
      "enistan": 8274,
      "bịt": 8275,
      "Giữ": 8276,
      "chuồng": 8277,
      "kmenistan": 8278,
      "1979": 8279,
      "Fernandez": 8280,
      "TMT": 8281,
      "Busan": 8282,
      "Boston": 8283,
      "hẳn": 8284,
      "Ry": 8285,
      "bưng": 8286,
      "ks": 8287,
      "pus": 8288,
      "Đợt": 8289,
      "trau": 8290,
      "ques": 8291,
      "Thách": 8292,
      "giàu": 8293,
      "1950": 8294,
      "dou": 8295,
      "lis": 8296,
      "Thuỳ": 8297,
      "Maloney": 8298,
      "Đàm": 8299,
      "mie": 8300,
      "outh": 8301,
      "Prin": 8302,
      "Julian": 8303,
      "rison": 8304,
      "yot": 8305,
      "Nhuận": 8306,
      "Turkmenistan": 8307,
      "Azerbaijan": 8308,
      "%;": 8309,
      "Dy": 8310,
      "Ge": 8311,
      "Hường": 8312,
      "Jass": 8313,
      "Pri": 8314,
      "Pat": 8315,
      "Weng": 8316,
      "Xung": 8317,
      "hú": 8318,
      "nắn": 8319,
      "vụng": 8320,
      "vun": 8321,
      "êng": 8322,
      "quăng": 8323,
      "Thú": 8324,
      "Trần": 8325,
      "Chế": 8326,
      "time": 8327,
      "ead": 8328,
      "tỉa": 8329,
      "sing": 8330,
      "000đ": 8331,
      "Duẩn": 8332,
      "high": 8333,
      "Mab": 8334,
      "Joe": 8335,
      "Tuệ": 8336,
      "VTV5": 8337,
      "omen": 8338,
      "tics": 8339,
      "lễ": 8340,
      "Busqu": 8341,
      "Gwangju": 8342,
      "3D": 8343,
      "Ami": 8344,
      "Fern": 8345,
      "IOC": 8346,
      "Lứa": 8347,
      "Mp": 8348,
      "Mèo": 8349,
      "Tùy": 8350,
      "Wai": 8351,
      "XIV": 8352,
      "ec": 8353,
      "ệt": 8354,
      "chanh": 8355,
      "thâu": 8356,
      "giầy": 8357,
      "Challeng": 8358,
      "dison": 8359,
      "105": 8360,
      "Thuý": 8361,
      "etta": 8362,
      "cation": 8363,
      "buộc": 8364,
      "Mail": 8365,
      "sẻ": 8366,
      "về": 8367,
      "tướng": 8368,
      "một": 8369,
      "cir": 8370,
      "Porto": 8371,
      "Somyot": 8372,
      "Maradona": 8373,
      "CR": 8374,
      "Lũng": 8375,
      "Ston": 8376,
      "Tạm": 8377,
      "Tuyệt": 8378,
      "bes": 8379,
      "cuốc": 8380,
      "das": 8381,
      "dắt": 8382,
      "lửng": 8383,
      "ráng": 8384,
      "rin": 8385,
      "sis": 8386,
      "sát": 8387,
      "wushu": 8388,
      "xở": 8389,
      "òe": 8390,
      "đài": 8391,
      "ngời": 8392,
      "chông": 8393,
      "thấp": 8394,
      "tric": 8395,
      "iềm": 8396,
      "Khali": 8397,
      "Giả": 8398,
      "ellow": 8399,
      "lison": 8400,
      "16h00": 8401,
      "Huynh": 8402,
      "cứ": 8403,
      "hùng": 8404,
      "yoga": 8405,
      "Tex": 8406,
      "Four": 8407,
      "bledon": 8408,
      "Southgate": 8409,
      "Oxford": 8410,
      "Wimbledon": 8411,
      "Mpande": 8412,
      "Dàn": 8413,
      "Dịp": 8414,
      "Miss": 8415,
      "NE": 8416,
      "NLĐ": 8417,
      "Tòng": 8418,
      "Yan": 8419,
      "bích": 8420,
      "bùi": 8421,
      "dạt": 8422,
      "fin": 8423,
      "pat": 8424,
      "uang": 8425,
      "Đổi": 8426,
      "đỗi": 8427,
      "nhai": 8428,
      "cht": 8429,
      "chiết": 8430,
      "chốc": 8431,
      "Trấn": 8432,
      "nghênh": 8433,
      "toát": 8434,
      "tois": 8435,
      "ury": 8436,
      "000m2": 8437,
      "andal": 8438,
      "gene": 8439,
      "Robin": 8440,
      "cựu": 8441,
      "mail": 8442,
      "phủ": 8443,
      "pearl": 8444,
      "Vinpearl": 8445,
      "hứa": 8446,
      "Corona": 8447,
      "bố": 8448,
      "thiết": 8449,
      "./.": 8450,
      "BOT": 8451,
      "Busquets": 8452,
      "Hỗ": 8453,
      "Hắn": 8454,
      "Hậu": 8455,
      "Kas": 8456,
      "Mời": 8457,
      "Rub": 8458,
      "XB": 8459,
      "Xùa": 8460,
      "cầm": 8461,
      "ef": 8462,
      "hề": 8463,
      "lâng": 8464,
      "lốp": 8465,
      "more": 8466,
      "rìa": 8467,
      "siết": 8468,
      "tống": 8469,
      "tle": 8470,
      "vạt": 8471,
      "vét": 8472,
      "chước": 8473,
      "Chóng": 8474,
      "Cũng": 8475,
      "ladesh": 8476,
      "cố": 8477,
      "Cov": 8478,
      "13h": 8479,
      "Nghề": 8480,
      "rez": 8481,
      "tuyến": 8482,
      "stem": 8483,
      "ders": 8484,
      "Stam": 8485,
      "Bangladesh": 8486,
      "Henrique": 8487,
      "ESPN": 8488,
      "Torres": 8489,
      "Supachok": 8490,
      "Adriano": 8491,
      "Jassim": 8492,
      "(“": 8493,
      "Fla": 8494,
      "Gà": 8495,
      "Kính": 8496,
      "Màu": 8497,
      "Nửa": 8498,
      "Ok": 8499,
      "Sel": 8500,
      "Tất": 8501,
      "cen": 8502,
      "dầm": 8503,
      "hon": 8504,
      "nộ": 8505,
      "Thí": 8506,
      "Thục": 8507,
      "ượng": 8508,
      "ory": 8509,
      "luỹ": 8510,
      "ella": 8511,
      "robot": 8512,
      "Liễu": 8513,
      "ealth": 8514,
      "kéo": 8515,
      "Silat": 8516,
      "1967": 8517,
      "̛ớc": 8518,
      "Cologne": 8519,
      "Twitter": 8520,
      "Global": 8521,
      "Texas": 8522,
      "Bung": 8523,
      "FB": 8524,
      "Giêng": 8525,
      "Rai": 8526,
      "Tống": 8527,
      "cúc": 8528,
      "gơ": 8529,
      "gro": 8530,
      "jon": 8531,
      "oi": 8532,
      "rùa": 8533,
      "uld": 8534,
      "vánh": 8535,
      "vuốt": 8536,
      "xùm": 8537,
      "ằm": 8538,
      "đùng": 8539,
      "vành": 8540,
      "quấy": 8541,
      "Thưởng": 8542,
      "Trách": 8543,
      "Chiêm": 8544,
      "1958": 8545,
      "toa": 8546,
      "cãi": 8547,
      "Anne": 8548,
      "ander": 8549,
      "rock": 8550,
      "Cope": 8551,
      "Roger": 8552,
      "VIẾT": 8553,
      "hẹn": 8554,
      "bềnh": 8555,
      "Hendri": 8556,
      "BÀI": 8557,
      "thềm": 8558,
      "Lisandro": 8559,
      "Renard": 8560,
      "Royal": 8561,
      "slide": 8562,
      "Hin": 8563,
      "Hứa": 8564,
      "Lar": 8565,
      "Tướng": 8566,
      "rưng": 8567,
      "tanh": 8568,
      "thạc": 8569,
      "phia": 8570,
      "giáng": 8571,
      "quạt": 8572,
      "iểng": 8573,
      "eople": 8574,
      "Que": 8575,
      "tinental": 8576,
      "...\".": 8577,
      "Lanc": 8578,
      "Worraw": 8579,
      "untain": 8580,
      "chiu": 8581,
      "mathan": 8582,
      "vovinam": 8583,
      "Loạt": 8584,
      "TVT": 8585,
      "chuyền": 8586,
      "Reu": 8587,
      "TẠO": 8588,
      "Stamford": 8589,
      "(+": 8590,
      "Cầm": 8591,
      "Dễ": 8592,
      "Fli": 8593,
      "Jal": 8594,
      "Leo": 8595,
      "bro": 8596,
      "hốt": 8597,
      "lợp": 8598,
      "lậu": 8599,
      "mí": 8600,
      "ss": 8601,
      "sá": 8602,
      "sảo": 8603,
      "tệ": 8604,
      "veo": 8605,
      "Ái": 8606,
      "đính": 8607,
      "̛̣": 8608,
      "nhõm": 8609,
      "ượm": 8610,
      "ant": 8611,
      "Thong": 8612,
      "Ngã": 8613,
      "Ngọn": 8614,
      "Infan": 8615,
      "''.": 8616,
      "lad": 8617,
      "đạp": 8618,
      "người": 8619,
      "Max": 8620,
      "tical": 8621,
      "nhagen": 8622,
      "Panya": 8623,
      "outcome": 8624,
      "Research": 8625,
      "BHYT": 8626,
      "Moriyasu": 8627,
      "Copenhagen": 8628,
      "Worrawoot": 8629,
      "Bia": 8630,
      "Bis": 8631,
      "Dạo": 8632,
      "Fair": 8633,
      "IA": 8634,
      "PR": 8635,
      "Port": 8636,
      "Tày": 8637,
      "Yous": 8638,
      "gáy": 8639,
      "ló": 8640,
      "mồm": 8641,
      "rạn": 8642,
      "sục": 8643,
      "will": 8644,
      "zon": 8645,
      "̂̀n": 8646,
      "Thung": 8647,
      "ràng": 8648,
      "Chev": 8649,
      "eni": 8650,
      "Giốc": 8651,
      "độ": 8652,
      "uni": 8653,
      "Alba": 8654,
      "Boxing": 8655,
      "Kyle": 8656,
      "Đồng": 8657,
      "Chap": 8658,
      "Mauri": 8659,
      "corona": 8660,
      "Abdulla": 8661,
      "Darwin": 8662,
      "Express": 8663,
      "Jermie": 8664,
      "Bunmathan": 8665,
      "ĐỘNG": 8666,
      "Ocean": 8667,
      "Infantino": 8668,
      "(*": 8669,
      "Bai": 8670,
      "Dược": 8671,
      "Food": 8672,
      "Lapor": 8673,
      "Mái": 8674,
      "NXB": 8675,
      "SD": 8676,
      "VO": 8677,
      "Wan": 8678,
      "XS": 8679,
      "bèo": 8680,
      "dấy": 8681,
      "hí": 8682,
      "kiêng": 8683,
      "lọ": 8684,
      "mách": 8685,
      "nôm": 8686,
      "rát": 8687,
      "rặng": 8688,
      "én": 8689,
      "ặng": 8690,
      "Đưa": 8691,
      "chạnh": 8692,
      "chàng": 8693,
      "trặc": 8694,
      "trách": 8695,
      "phối": 8696,
      "đãng": 8697,
      "Trạch": 8698,
      "ality": 8699,
      "phạm": 8700,
      "chiến": 8701,
      "but": 8702,
      "pporo": 8703,
      "Motor": 8704,
      "Sapporo": 8705,
      "trì": 8706,
      "1962": 8707,
      "1963": 8708,
      "1981": 8709,
      "Big": 8710,
      "Paraguay": 8711,
      "McTo": 8712,
      ".)": 8713,
      "Fit": 8714,
      "LA": 8715,
      "LTS": 8716,
      "Ryu": 8717,
      "Srim": 8718,
      "gập": 8719,
      "hắt": 8720,
      "nã": 8721,
      "nạo": 8722,
      "oai": 8723,
      "tột": 8724,
      "vre": 8725,
      "zid": 8726,
      "Ðông": 8727,
      "Thới": 8728,
      "20m": 8729,
      "inha": 8730,
      "khí": 8731,
      "Chức": 8732,
      "Chim": 8733,
      "chuộc": 8734,
      "khuấy": 8735,
      "Thuật": 8736,
      "15h00": 8737,
      "đồ": 8738,
      "cker": 8739,
      "Safa": 8740,
      "lana": 8741,
      "Nag": 8742,
      "your": 8743,
      "Carl": 8744,
      "Perez": 8745,
      "minay": 8746,
      "Salz": 8747,
      "kayak": 8748,
      "McTominay": 8749,
      "Aar": 8750,
      "BB": 8751,
      "BVHTTDL": 8752,
      "Game": 8753,
      "Kras": 8754,
      "Sâm": 8755,
      "Stre": 8756,
      "Vấp": 8757,
      "bự": 8758,
      "bồn": 8759,
      "dông": 8760,
      "niềm": 8761,
      "ot": 8762,
      "pas": 8763,
      "răn": 8764,
      "rỗng": 8765,
      "sc": 8766,
      "sỏi": 8767,
      "xuyến": 8768,
      "xui": 8769,
      "̂̉": 8770,
      "“,": 8771,
      "trá": 8772,
      "giàn": 8773,
      "Thiêm": 8774,
      "Trắng": 8775,
      "Chín": 8776,
      "Nguyện": 8777,
      "giản": 8778,
      "quản": 8779,
      "Khối": 8780,
      "lum": 8781,
      "hệt": 8782,
      "125": 8783,
      "buổi": 8784,
      "nguồn": 8785,
      "Rom": 8786,
      "CON": 8787,
      "vênh": 8788,
      "Soung": 8789,
      "1974": 8790,
      "Bourn": 8791,
      "camex": 8792,
      "Pogba": 8793,
      "PTNT": 8794,
      "Stal": 8795,
      "yeong": 8796,
      "internet": 8797,
      "để": 8798,
      "Burnley": 8799,
      "Fernando": 8800,
      "Der": 8801,
      "Lim": 8802,
      "NÀY": 8803,
      "bet": 8804,
      "bật": 8805,
      "gấu": 8806,
      "wri": 8807,
      "chích": 8808,
      "thin": 8809,
      "khăng": 8810,
      "phật": 8811,
      "gir": 8812,
      "emouth": 8813,
      "ures": 8814,
      "12h": 8815,
      "Marino": 8816,
      "ữa": 8817,
      "ffel": 8818,
      "ết": 8819,
      "Becamex": 8820,
      "Gareth": 8821,
      "Henri": 8822,
      "erence": 8823,
      "Plaza": 8824,
      "Supachai": 8825,
      "Jones": 8826,
      "Hougang": 8827,
      "Reuters": 8828,
      "XSKT": 8829,
      "Bournemouth": 8830,
      "5m": 8831,
      "ATP": 8832,
      "Ama": 8833,
      "Cột": 8834,
      "EF": 8835,
      "Fun": 8836,
      "Mày": 8837,
      "Mol": 8838,
      "MỜI": 8839,
      "Ster": 8840,
      "Yun": 8841,
      "bấp": 8842,
      "dro": 8843,
      "dằn": 8844,
      "sỡ": 8845,
      "sùng": 8846,
      "spa": 8847,
      "Đế": 8848,
      "̃y": 8849,
      "̛ơ": 8850,
      "nhát": 8851,
      "nhằm": 8852,
      "trơ": 8853,
      "tral": 8854,
      "phung": 8855,
      "augh": 8856,
      "Phở": 8857,
      "dical": 8858,
      "lus": 8859,
      "ám": 8860,
      "etz": 8861,
      "kén": 8862,
      "Mansaray": 8863,
      "tana": 8864,
      "Johor": 8865,
      "zawa": 8866,
      "NHM": 8867,
      "lẻo": 8868,
      "Foden": 8869,
      "Romania": 8870,
      "chiếc": 8871,
      "ngoại": 8872,
      "5h": 8873,
      "Bể": 8874,
      "Góc": 8875,
      "Gard": 8876,
      "Jai": 8877,
      "Lòng": 8878,
      "Láng": 8879,
      "RS": 8880,
      "Tý": 8881,
      "bậy": 8882,
      "buốt": 8883,
      "cù": 8884,
      "cào": 8885,
      "cuống": 8886,
      "cle": 8887,
      "huyệt": 8888,
      "nick": 8889,
      "râu": 8890,
      "tẩm": 8891,
      "viện": 8892,
      "yang": 8893,
      "yad": 8894,
      "year": 8895,
      "̉e": 8896,
      "’).": 8897,
      "nhang": 8898,
      "chòi": 8899,
      "thục": 8900,
      "phon": 8901,
      "Ngà": 8902,
      "hoạn": 8903,
      "thum": 8904,
      "als": 8905,
      "1946": 8906,
      "Giảm": 8907,
      "bộn": 8908,
      "lation": 8909,
      "17h30": 8910,
      "tup": 8911,
      "thử": 8912,
      "Ngoài": 8913,
      "dap": 8914,
      "Davi": 8915,
      "Nike": 8916,
      "Fabri": 8917,
      "Medicine": 8918,
      "Seung": 8919,
      "chuyến": 8920,
      "MICE": 8921,
      "Puli": 8922,
      "entific": 8923,
      "BĐS": 8924,
      "Claude": 8925,
      "Eiffel": 8926,
      "Courtois": 8927,
      "Wenger": 8928,
      "Srimaka": 8929,
      "7h": 8930,
      "Hwang": 8931,
      "Ty": 8932,
      "Tang": 8933,
      "Ung": 8934,
      "Wemb": 8935,
      "dàng": 8936,
      "kus": 8937,
      "kèn": 8938,
      "ue": 8939,
      "vy": 8940,
      "whi": 8941,
      "zy": 8942,
      "ỗi": 8943,
      "ẩng": 8944,
      "ỘT": 8945,
      "ngấm": 8946,
      "chập": 8947,
      "thơi": 8948,
      "khởi": 8949,
      "Thìn": 8950,
      "20km": 8951,
      "Truyện": 8952,
      "àu": 8953,
      "khỏe": 8954,
      "Vir": 8955,
      "vara": 8956,
      "pova": 8957,
      "Continental": 8958,
      "55kg": 8959,
      "Đoòng": 8960,
      "Oscar": 8961,
      "tamin": 8962,
      "Scopus": 8963,
      "Greenwood": 8964,
      "lture": 8965,
      "Stras": 8966,
      "Wembley": 8967,
      "990": 8968,
      "Bông": 8969,
      "Bỗng": 8970,
      "GTVT": 8971,
      "HT": 8972,
      "Hổ": 8973,
      "Liệt": 8974,
      "Mão": 8975,
      "NVT": 8976,
      "Op": 8977,
      "Ong": 8978,
      "RNA": 8979,
      "Tích": 8980,
      "Vắng": 8981,
      "Xê": 8982,
      "cic": 8983,
      "gáo": 8984,
      "găng": 8985,
      "gừng": 8986,
      "hanh": 8987,
      "niêm": 8988,
      "ov": 8989,
      "stein": 8990,
      "đày": 8991,
      "nguyền": 8992,
      "khâm": 8993,
      "pharm": 8994,
      "Trưng": 8995,
      "tabe": 8996,
      "công": 8997,
      "uru": 8998,
      "TTg": 8999,
      "tuồng": 9000,
      "nguỵ": 9001,
      "Main": 9002,
      "post": 9003,
      "Lei": 9004,
      "Pathum": 9005,
      "Boli": 9006,
      "Hein": 9007,
      "Kawin": 9008,
      "golfer": 9009,
      "Hiro": 9010,
      "Alisson": 9011,
      "Grae": 9012,
      "waii": 9013,
      "bổ": 9014,
      "AIDS": 9015,
      "Watabe": 9016,
      "Christo": 9017,
      "Hakim": 9018,
      "stress": 9019,
      "Adidas": 9020,
      "Francisco": 9021,
      "orentina": 9022,
      "GPT": 9023,
      "Hẳn": 9024,
      "Jas": 9025,
      "Pai": 9026,
      "Suy": 9027,
      "Sand": 9028,
      "Tiền": 9029,
      "Yếu": 9030,
      "dặm": 9031,
      "lanh": 9032,
      "nem": 9033,
      "ÂN": 9034,
      "nhen": 9035,
      "thái": 9036,
      "trũng": 9037,
      "Chư": 9038,
      "Chon": 9039,
      "arez": 9040,
      "thampton": 9041,
      "Vien": 9042,
      "tech": 9043,
      "ings": 9044,
      "Neg": 9045,
      "mãi": 9046,
      "Mountain": 9047,
      "Saf": 9048,
      "Suarez": 9049,
      "Cab": 9050,
      "Budap": 9051,
      "Fiorentina": 9052,
      "gym": 9053,
      "ADA": 9054,
      "Persi": 9055,
      "Naing": 9056,
      "Shara": 9057,
      "Herbali": 9058,
      "Olive": 9059,
      "Valencia": 9060,
      "Hendrio": 9061,
      "Graechen": 9062,
      "Budapest": 9063,
      "Herbalife": 9064,
      "Ederson": 9065,
      "Hus": 9066,
      "Nishi": 9067,
      "Vạc": 9068,
      "hễ": 9069,
      "har": 9070,
      "mấy": 9071,
      "năn": 9072,
      "rậm": 9073,
      "tar": 9074,
      "ulo": 9075,
      "zalo": 9076,
      "ỗ": 9077,
      "Đóng": 9078,
      "̣̆": 9079,
      "nhăn": 9080,
      "chì": 9081,
      "phớt": 9082,
      "choàng": 9083,
      "Trụ": 9084,
      "Trận": 9085,
      "Chin": 9086,
      "Phản": 9087,
      "họng": 9088,
      "thú": 9089,
      "diff": 9090,
      "tải": 9091,
      "life": 9092,
      "tử": 9093,
      "cản": 9094,
      "VNĐ": 9095,
      "Mir": 9096,
      "review": 9097,
      "tuyệt": 9098,
      "orde": 9099,
      "Chile": 9100,
      "tainer": 9101,
      "Sporting": 9102,
      "Siem": 9103,
      "Power": 9104,
      "Potter": 9105,
      "hồ": 9106,
      "hỗ": 9107,
      "cell": 9108,
      "Williams": 9109,
      "Sinopharm": 9110,
      "Athle": 9111,
      "Mabkho": 9112,
      "Chevaugh": 9113,
      "Strasbourg": 9114,
      "2m": 9115,
      "3m": 9116,
      "6h": 9117,
      "?!": 9118,
      "Biden": 9119,
      "CB": 9120,
      "Fai": 9121,
      "Fin": 9122,
      "Kun": 9123,
      "Lô": 9124,
      "MP": 9125,
      "MV": 9126,
      "Nắng": 9127,
      "SP": 9128,
      "bà": 9129,
      "gộp": 9130,
      "ii": 9131,
      "kẹp": 9132,
      "lóng": 9133,
      "sủa": 9134,
      "điếu": 9135,
      "̆m": 9136,
      "ngớ": 9137,
      "ngạo": 9138,
      "nhâm": 9139,
      "chội": 9140,
      "thính": 9141,
      "thóc": 9142,
      "trỗi": 9143,
      "tràm": 9144,
      "phách": 9145,
      "some": 9146,
      "'').": 9147,
      "xảy": 9148,
      "thừa": 9149,
      "14h30": 9150,
      "Manuel": 9151,
      "Marca": 9152,
      "pole": 9153,
      "Mag": 9154,
      "Madame": 9155,
      "Rap": 9156,
      "Bena": 9157,
      "Andy": 9158,
      "Slova": 9159,
      "startup": 9160,
      "colate": 9161,
      "volley": 9162,
      "break": 9163,
      "Safawi": 9164,
      "Chevaughn": 9165,
      "Canh": 9166,
      "Dre": 9167,
      "Fra": 9168,
      "Gã": 9169,
      "Kạn": 9170,
      "bỡ": 9171,
      "bác": 9172,
      "cặp": 9173,
      "cấm": 9174,
      "mồng": 9175,
      "múi": 9176,
      "pri": 9177,
      "sim": 9178,
      "tịnh": 9179,
      "wen": 9180,
      "Điển": 9181,
      "ứa": 9182,
      "nhét": 9183,
      "phũ": 9184,
      "Chả": 9185,
      "indi": 9186,
      "diol": 9187,
      "khoanh": 9188,
      "Giảng": 9189,
      "HCN": 9190,
      "usto": 9191,
      "tulip": 9192,
      "akpo": 9193,
      "cáo": 9194,
      "25m": 9195,
      "cử": 9196,
      "ccess": 9197,
      "Patrick": 9198,
      "Chiesa": 9199,
      "Bola": 9200,
      "oshi": 9201,
      "Samuel": 9202,
      "lẻn": 9203,
      "Tổng": 9204,
      "Southampton": 9205,
      "kiểm": 9206,
      "Mahrez": 9207,
      "Sharapova": 9208,
      "!.": 9209,
      "Abu": 9210,
      "Cr": 9211,
      "FDI": 9212,
      "Gakpo": 9213,
      "IN": 9214,
      "Jet": 9215,
      "Kor": 9216,
      "Pon": 9217,
      "Ric": 9218,
      "Sak": 9219,
      "Tế": 9220,
      "WTA": 9221,
      "XVII": 9222,
      "Ze": 9223,
      "bưu": 9224,
      "dern": 9225,
      "ệ": 9226,
      "hộ": 9227,
      "mal": 9228,
      "vớ": 9229,
      "vần": 9230,
      "vầy": 9231,
      "ved": 9232,
      "xơ": 9233,
      "ĐN": 9234,
      "Đồi": 9235,
      "ỚI": 9236,
      "…\".": 9237,
      "ngách": 9238,
      "thúng": 9239,
      "aifi": 9240,
      "cụ": 9241,
      "Khúc": 9242,
      "Khel": 9243,
      "Hol": 9244,
      "eak": 9245,
      "luồn": 9246,
      "lĩnh": 9247,
      "128": 9248,
      "Doãn": 9249,
      "traZ": 9250,
      "mpan": 9251,
      "Rooney": 9252,
      "Sapa": 9253,
      "Latin": 9254,
      "Arab": 9255,
      "mẽ": 9256,
      "nawi": 9257,
      "Johan": 9258,
      "Book": 9259,
      "CNTT": 9260,
      "AstraZ": 9261,
      "Asnawi": 9262,
      "........": 9263,
      "Bert": 9264,
      "alot": 9265,
      "core": 9266,
      "vững": 9267,
      "Donnar": 9268,
      "đợi": 9269,
      "Rangers": 9270,
      "Jenni": 9271,
      "England": 9272,
      "Science": 9273,
      "Marinos": 9274,
      "Sterling": 9275,
      "Athletic": 9276,
      "Mabkhout": 9277,
      "Khelaifi": 9278,
      "Cận": 9279,
      "Cồn": 9280,
      "PG": 9281,
      "Pù": 9282,
      "Răng": 9283,
      "dốt": 9284,
      "gò": 9285,
      "hực": 9286,
      "hừng": 9287,
      "lẩu": 9288,
      "lênh": 9289,
      "mino": 9290,
      "nép": 9291,
      "rợp": 9292,
      "sắn": 9293,
      "sắp": 9294,
      "ổn": 9295,
      "ẵn": 9296,
      "ẾN": 9297,
      "ngao": 9298,
      "nguyệt": 9299,
      "ngót": 9300,
      "ngẩng": 9301,
      "thảy": 9302,
      "quế": 9303,
      "Ngày": 9304,
      "logo": 9305,
      "Khí": 9306,
      "Khuyến": 9307,
      "chút": 9308,
      "vitamin": 9309,
      "Anfield": 9310,
      "tey": 9311,
      "Col": 9312,
      "Haj": 9313,
      "niqi": 9314,
      "eiro": 9315,
      "1976": 9316,
      "̛ờng": 9317,
      "Khoáng": 9318,
      "Goncalo": 9319,
      "Warri": 9320,
      "baht": 9321,
      "Carabao": 9322,
      "Oseni": 9323,
      "Stones": 9324,
      "Flick": 9325,
      "girl": 9326,
      "Vienna": 9327,
      "Cấn": 9328,
      "Cần": 9329,
      "CCP": 9330,
      "Day": 9331,
      "QU": 9332,
      "RI": 9333,
      "Sin": 9334,
      "Wh": 9335,
      "Wong": 9336,
      "Woo": 9337,
      "bau": 9338,
      "dale": 9339,
      "gam": 9340,
      "gào": 9341,
      "gầm": 9342,
      "gớm": 9343,
      "hằn": 9344,
      "luyến": 9345,
      "oto": 9346,
      "sha": 9347,
      "tấu": 9348,
      "tus": 9349,
      "vờ": 9350,
      "Đôn": 9351,
      "”).": 9352,
      "nhũ": 9353,
      "chải": 9354,
      "chấm": 9355,
      "thảnh": 9356,
      "thách": 9357,
      "trướng": 9358,
      "uya": 9359,
      "Trãi": 9360,
      "Khá": 9361,
      "container": 9362,
      "guez": 9363,
      "vich": 9364,
      "sid": 9365,
      "sider": 9366,
      "chit": 9367,
      "đảm": 9368,
      "Hawaii": 9369,
      "Luận": 9370,
      "sara": 9371,
      "nghị": 9372,
      "Khuê": 9373,
      "Guin": 9374,
      "Ameri": 9375,
      "Quảng": 9376,
      "Moro": 9377,
      "Quý": 9378,
      "biển": 9379,
      "umma": 9380,
      "Kovac": 9381,
      "Martinelli": 9382,
      "bêtông": 9383,
      "eneca": 9384,
      "delta": 9385,
      "Mohammed": 9386,
      "lựa": 9387,
      "Memo": 9388,
      "AstraZeneca": 9389,
      "Donnarumma": 9390,
      ".“": 9391,
      "2km": 9392,
      "Dalot": 9393,
      "Hóc": 9394,
      "Himal": 9395,
      "Nan": 9396,
      "Poo": 9397,
      "SS": 9398,
      "Tar": 9399,
      "bor": 9400,
      "ced": 9401,
      "ện": 9402,
      "hên": 9403,
      "hào": 9404,
      "lán": 9405,
      "mập": 9406,
      "nịch": 9407,
      "our": 9408,
      "tắp": 9409,
      "vồng": 9410,
      "who": 9411,
      "yen": 9412,
      "ÊN": 9413,
      "Đám": 9414,
      "đậm": 9415,
      "char": 9416,
      "esley": 9417,
      "1930": 9418,
      "Quãng": 9419,
      "dium": 9420,
      "tas": 9421,
      "ngoái": 9422,
      "113": 9423,
      "unity": 9424,
      "atta": 9425,
      "chếch": 9426,
      "Luxem": 9427,
      "Legen": 9428,
      "cửa": 9429,
      "Mạch": 9430,
      "Rah": 9431,
      "ffe": 9432,
      "pháp": 9433,
      "Youtube": 9434,
      "Brown": 9435,
      "Romano": 9436,
      "Kante": 9437,
      "Tony": 9438,
      "White": 9439,
      "Ruben": 9440,
      "Negros": 9441,
      "Ce": 9442,
      "M150": 9443,
      "Vọng": 9444,
      "XHCN": 9445,
      "gre": 9446,
      "hũ": 9447,
      "lia": 9448,
      "pur": 9449,
      "people": 9450,
      "sin": 9451,
      "xèo": 9452,
      "analy": 9453,
      "hou": 9454,
      "tiz": 9455,
      "độn": 9456,
      "1957": 9457,
      "bịa": 9458,
      "dùng": 9459,
      "khỏi": 9460,
      "trẻo": 9461,
      "silat": 9462,
      "teen": 9463,
      "edin": 9464,
      "iness": 9465,
      "eka": 9466,
      "tốc": 9467,
      "với": 9468,
      "Conf": 9469,
      "trích": 9470,
      "Timber": 9471,
      "Fati": 9472,
      "ở": 9473,
      "Henderson": 9474,
      "Fandi": 9475,
      "elite": 9476,
      "Vaccine": 9477,
      "Praha": 9478,
      "chiếm": 9479,
      "Center": 9480,
      "Central": 9481,
      "Gianni": 9482,
      "Sofyan": 9483,
      "Tunis": 9484,
      "Reap": 9485,
      "sushi": 9486,
      "Chapel": 9487,
      "Salzburg": 9488,
      "Claudecir": 9489,
      "320": 9490,
      "Dus": 9491,
      "Dạy": 9492,
      "Gau": 9493,
      "JC": 9494,
      "Kình": 9495,
      "MỘT": 9496,
      "Tui": 9497,
      "Tọa": 9498,
      "Vla": 9499,
      "Veli": 9500,
      "aw": 9501,
      "bét": 9502,
      "dượng": 9503,
      "hán": 9504,
      "hởi": 9505,
      "kai": 9506,
      "lộ": 9507,
      "múc": 9508,
      "nêm": 9509,
      "riết": 9510,
      "sấm": 9511,
      "tì": 9512,
      "tơi": 9513,
      "ys": 9514,
      "Đẳng": 9515,
      "đàn": 9516,
      "̛̉": 9517,
      "nhiệt": 9518,
      "chống": 9519,
      "trứ": 9520,
      "phôi": 9521,
      "Thụ": 9522,
      "Trừ": 9523,
      "Nhanh": 9524,
      "Nhà": 9525,
      "tier": 9526,
      "alis": 9527,
      "ví": 9528,
      "lion": 9529,
      "115": 9530,
      "team": 9531,
      "2019Vòng": 9532,
      "Comm": 9533,
      "Live": 9534,
      "sợ": 9535,
      "Bran": 9536,
      "Brug": 9537,
      "Lop": 9538,
      "Shar": 9539,
      "Bob": 9540,
      "Guus": 9541,
      "nhoà": 9542,
      "CNC": 9543,
      "nỗi": 9544,
      "phép": 9545,
      "balô": 9546,
      "dưỡng": 9547,
      "Fuku": 9548,
      "ggs": 9549,
      "Leonardo": 9550,
      "Krasniqi": 9551,
      "Oliveira": 9552,
      "Himalaya": 9553,
      "Tunisia": 9554,
      "Athen": 9555,
      "Eins": 9556,
      "Hor": 9557,
      "Kit": 9558,
      "Non": 9559,
      "Nào": 9560,
      "Pas": 9561,
      "Scal": 9562,
      "VF": 9563,
      "Xá": 9564,
      "cõng": 9565,
      "dí": 9566,
      "nến": 9567,
      "op": 9568,
      "tòi": 9569,
      "̛n": 9570,
      "thiêu": 9571,
      "Thiều": 9572,
      "raz": 9573,
      "Cham": 9574,
      "dok": 9575,
      "tạm": 9576,
      "guel": 9577,
      "Giro": 9578,
      "ely": 9579,
      "108": 9580,
      "toán": 9581,
      "vier": 9582,
      "tyn": 9583,
      "Anto": 9584,
      "thoát": 9585,
      "ppi": 9586,
      "ngũ": 9587,
      "Alli": 9588,
      "Alme": 9589,
      "Shan": 9590,
      "Pavard": 9591,
      "Sane": 9592,
      "Benjam": 9593,
      "wee": 9594,
      "Enzo": 9595,
      "Hollywood": 9596,
      "PPP": 9597,
      "AFP": 9598,
      "world": 9599,
      "Socied": 9600,
      "Flavio": 9601,
      "Warriors": 9602,
      "Luxembourg": 9603,
      "Einstein": 9604,
      "\";": 9605,
      "\"?": 9606,
      "',": 9607,
      "122": 9608,
      "Blo": 9609,
      "Bắc": 9610,
      "Fro": 9611,
      "Ht": 9612,
      "Hồng": 9613,
      "PE": 9614,
      "Sus": 9615,
      "XII": 9616,
      "Yama": 9617,
      "abo": 9618,
      "bở": 9619,
      "bẩm": 9620,
      "bầu": 9621,
      "cr": 9622,
      "cồng": 9623,
      "kiểng": 9624,
      "lm": 9625,
      "nấc": 9626,
      "nẻo": 9627,
      "nCov": 9628,
      "rít": 9629,
      "rói": 9630,
      "zzo": 9631,
      "chợ": 9632,
      "chỗ": 9633,
      "chóng": 9634,
      "Trip": 9635,
      "Howe": 9636,
      "cow": 9637,
      "Copa": 9638,
      "Lien": 9639,
      "Miguel": 9640,
      "kip": 9641,
      "Thana": 9642,
      "rút": 9643,
      "Bozid": 9644,
      "Riyad": 9645,
      "ều": 9646,
      "cial": 9647,
      "produ": 9648,
      "Techo": 9649,
      "photo": 9650,
      "Sime": 9651,
      "Water": 9652,
      "Jackson": 9653,
      "Jorge": 9654,
      "Rayong": 9655,
      "blogger": 9656,
      "Billiards": 9657,
      "Dunedin": 9658,
      "CR7": 9659,
      "Stalin": 9660,
      "Kovacic": 9661,
      "Velizar": 9662,
      "Benjamin": 9663,
      "Sociedad": 9664,
      "Bozidar": 9665,
      "App": 9666,
      "Cấp": 9667,
      "FO": 9668,
      "Fal": 9669,
      "Gam": 9670,
      "Hôn": 9671,
      "Hưởng": 9672,
      "Jul": 9673,
      "Mừng": 9674,
      "Ode": 9675,
      "Sno": 9676,
      "SMM": 9677,
      "bẽ": 9678,
      "cằn": 9679,
      "cini": 9680,
      "dâm": 9681,
      "gắn": 9682,
      "lăm": 9683,
      "nil": 9684,
      "xỏ": 9685,
      "nhẽ": 9686,
      "nhúng": 9687,
      "trạch": 9688,
      "trans": 9689,
      "chocolate": 9690,
      "nghiền": 9691,
      "nghề": 9692,
      "chỉn": 9693,
      "quảng": 9694,
      "khoét": 9695,
      "Home": 9696,
      "Inza": 9697,
      "ety": 9698,
      "tỷ": 9699,
      "Ander": 9700,
      "ĐTV": 9701,
      "Altyn": 9702,
      "mại": 9703,
      "Luôn": 9704,
      "Rock": 9705,
      "Bruss": 9706,
      "rul": 9707,
      "60kg": 9708,
      "elsmann": 9709,
      "Jota": 9710,
      "NGUY": 9711,
      "Sul": 9712,
      "Kỳ": 9713,
      "Muay": 9714,
      "!!!!": 9715,
      "Fanta": 9716,
      "TGĐ": 9717,
      "giỏi": 9718,
      "Dias": 9719,
      "Lauren": 9720,
      "lén": 9721,
      "rổ": 9722,
      "Galata": 9723,
      "thuyết": 9724,
      "nhớ": 9725,
      "Fitness": 9726,
      "Nagelsmann": 9727,
      "Davies": 9728,
      "Simeone": 9729,
      "Odegaard": 9730,
      "Inzaghi": 9731,
      "Cáp": 9732,
      "CSG": 9733,
      "Hảo": 9734,
      "Kei": 9735,
      "Lúa": 9736,
      "Lens": 9737,
      "Nụ": 9738,
      "Rus": 9739,
      "Xưa": 9740,
      "ag": 9741,
      "bẩy": 9742,
      "bridge": 9743,
      "gala": 9744,
      "hót": 9745,
      "m3": 9746,
      "mứt": 9747,
      "mắn": 9748,
      "pla": 9749,
      "rông": 9750,
      "rợn": 9751,
      "wich": 9752,
      "xổ": 9753,
      "yết": 9754,
      "ngác": 9755,
      "thừng": 9756,
      "trầu": 9757,
      "khẳng": 9758,
      "amuang": 9759,
      "nghẽn": 9760,
      "thuận": 9761,
      "điện": 9762,
      "1955": 9763,
      "eric": 9764,
      "dục": 9765,
      "đềm": 9766,
      "...).": 9767,
      "Leagues": 9768,
      "vụt": 9769,
      "urs": 9770,
      "''''": 9771,
      "cat": 9772,
      "cáu": 9773,
      "bos": 9774,
      "Toán": 9775,
      "Mancini": 9776,
      "hiu": 9777,
      "Liber": 9778,
      "Mary": 9779,
      "bias": 9780,
      "vẻ": 9781,
      "vẹn": 9782,
      "Timo": 9783,
      "trogen": 9784,
      "River": 9785,
      "rygo": 9786,
      "ller": 9787,
      "elles": 9788,
      "Senamuang": 9789,
      "Rodriguez": 9790,
      "Weiss": 9791,
      "23h45": 9792,
      "Disney": 9793,
      "Rodrygo": 9794,
      "Mainz": 9795,
      "Gvar": 9796,
      "HTV": 9797,
      "Nak": 9798,
      "Sửu": 9799,
      "TKS": 9800,
      "VG": 9801,
      "Vina": 9802,
      "WC": 9803,
      "cta": 9804,
      "camp": 9805,
      "cles": 9806,
      "dãi": 9807,
      "iani": 9808,
      "mầu": 9809,
      "nung": 9810,
      "oán": 9811,
      "pres": 9812,
      "vet": 9813,
      "xury": 9814,
      "Đán": 9815,
      "ử": 9816,
      "̛̀": 9817,
      "ỆT": 9818,
      "nhá": 9819,
      "chà": 9820,
      "20h30": 9821,
      "tian": 9822,
      "giác": 9823,
      "Gio": 9824,
      "cải": 9825,
      "Neto": 9826,
      "FAM": 9827,
      "Miya": 9828,
      "vski": 9829,
      "kịch": 9830,
      "Naz": 9831,
      "most": 9832,
      "Soe": 9833,
      "key": 9834,
      "ezone": 9835,
      "paper": 9836,
      "Foiani": 9837,
      "Matt": 9838,
      "Darul": 9839,
      "Bluezone": 9840,
      "America": 9841,
      "Morodok": 9842,
      "Scaloni": 9843,
      "Galatasaray": 9844,
      "!?": 9845,
      "%/": 9846,
      "1h": 9847,
      "1km": 9848,
      "Fri": 9849,
      "GỠ": 9850,
      "Gươm": 9851,
      "Lính": 9852,
      "Miếu": 9853,
      "Ole": 9854,
      "Tiết": 9855,
      "Tele": 9856,
      "cùi": 9857,
      "group": 9858,
      "lố": 9859,
      "luống": 9860,
      "ome": 9861,
      "rùng": 9862,
      "wis": 9863,
      "‘.": 9864,
      "ngốc": 9865,
      "ngẩm": 9866,
      "trán": 9867,
      "giỏ": 9868,
      "giẫm": 9869,
      "Chăn": 9870,
      "Phổ": 9871,
      "Phối": 9872,
      "tiết": 9873,
      "ente": 9874,
      "dụ": 9875,
      "duệ": 9876,
      "dính": 9877,
      "Khái": 9878,
      "Khảo": 9879,
      "lic": 9880,
      "118": 9881,
      "cab": 9882,
      "side": 9883,
      "lav": 9884,
      "CoVid": 9885,
      "Haiti": 9886,
      "Modern": 9887,
      "sage": 9888,
      "dạng": 9889,
      "dee": 9890,
      "Suwon": 9891,
      "inoe": 9892,
      "professor": 9893,
      "Gaal": 9894,
      "llege": 9895,
      "Blue": 9896,
      "Show": 9897,
      "logic": 9898,
      "Rapinoe": 9899,
      "Gvardiol": 9900,
      "BMI": 9901,
      "Plan": 9902,
      "Tố": 9903,
      "dàn": 9904,
      "rả": 9905,
      "sưa": 9906,
      "sẵn": 9907,
      "yes": 9908,
      "Án": 9909,
      "Ẩm": 9910,
      "ệ": 9911,
      "ngà": 9912,
      "chùng": 9913,
      "thiện": 9914,
      "trào": 9915,
      "phẫn": 9916,
      "Trào": 9917,
      "rald": 9918,
      "onso": 9919,
      "Khẩu": 9920,
      "đóng": 9921,
      "ppy": 9922,
      "Toulo": 9923,
      "Bach": 9924,
      "muỗi": 9925,
      "Dijk": 9926,
      "Choong": 9927,
      "Sya": 9928,
      "phù": 9929,
      "CAF": 9930,
      "Mùa": 9931,
      "giáo": 9932,
      "Pierre": 9933,
      "Rams": 9934,
      "Hansi": 9935,
      "Rubia": 9936,
      "VTX": 9937,
      "Mendy": 9938,
      "Moscow": 9939,
      "science": 9940,
      "Phillip": 9941,
      "Ibrahimo": 9942,
      "ẫu": 9943,
      "lockdown": 9944,
      "stitu": 9945,
      "Fabrizio": 9946,
      "Pulisic": 9947,
      "Brussels": 9948,
      "Toulouse": 9949,
      "3km": 9950,
      "5x": 9951,
      "Best": 9952,
      "BĐTV": 9953,
      "PI": 9954,
      "Sanh": 9955,
      "Sund": 9956,
      "Ts": 9957,
      "age": 9958,
      "búp": 9959,
      "dặt": 9960,
      "eon": 9961,
      "fol": 9962,
      "gel": 9963,
      "hạch": 9964,
      "lác": 9965,
      "sấu": 9966,
      "viết": 9967,
      "ngớt": 9968,
      "nhóc": 9969,
      "cheo": 9970,
      "thlon": 9971,
      "Thắm": 9972,
      "aoke": 9973,
      "đích": 9974,
      "190": 9975,
      "cúp": 9976,
      "dies": 9977,
      "Khao": 9978,
      "tage": 9979,
      "eath": 9980,
      "Giggs": 9981,
      "103": 9982,
      "sóng": 9983,
      "taya": 9984,
      "sửng": 9985,
      "usa": 9986,
      "sein": 9987,
      "Lucao": 9988,
      "CTV": 9989,
      "model": 9990,
      "Brah": 9991,
      "Thơm": 9992,
      "tennis": 9993,
      "Juan": 9994,
      "kawa": 9995,
      "Berne": 9996,
      "Island": 9997,
      "Herve": 9998,
      "Scott": 9999,
      "were": 10000,
      "Gonzalo": 10001,
      "Kenya": 10002,
      "Sarach": 10003,
      "̂́y": 10004,
      "4x400m": 10005,
      "Memor": 10006,
      "Stevens": 10007,
      "Nicolas": 10008,
      "Hindu": 10009,
      "Giroud": 10010,
      "Antoine": 10011,
      "Rubiales": 10012,
      "Ibrahimovic": 10013,
      "BE": 10014,
      "Cò": 10015,
      "Gy": 10016,
      "Gan": 10017,
      "ID": 10018,
      "Kro": 10019,
      "Luiz": 10020,
      "Zhang": 10021,
      "cẳng": 10022,
      "cchi": 10023,
      "dẳng": 10024,
      "hạm": 10025,
      "ian": 10026,
      "mè": 10027,
      "pers": 10028,
      "rán": 10029,
      "sứt": 10030,
      "tton": 10031,
      "uda": 10032,
      "xử": 10033,
      "Đà": 10034,
      "̃a": 10035,
      "nhện": 10036,
      "chỏ": 10037,
      "phẩm": 10038,
      "Ngôn": 10039,
      "Phiêu": 10040,
      "tiếu": 10041,
      "lọt": 10042,
      "ement": 10043,
      "Kháng": 10044,
      "Institu": 10045,
      "bad": 10046,
      "bach": 10047,
      "cafe": 10048,
      "sit": 10049,
      "ric": 10050,
      "Mala": 10051,
      "bou": 10052,
      "Alonso": 10053,
      "vers": 10054,
      "verkus": 10055,
      "Mou": 10056,
      "Leverkus": 10057,
      "mời": 10058,
      "khỏa": 10059,
      "1977": 10060,
      "bé": 10061,
      "Rasid": 10062,
      "hủy": 10063,
      "Milk": 10064,
      "trừu": 10065,
      "fiq": 10066,
      "CPH": 10067,
      "Thoạt": 10068,
      "Tech": 10069,
      "Salv": 10070,
      "Joseph": 10071,
      "Versai": 10072,
      "CSB": 10073,
      "Murray": 10074,
      "pital": 10075,
      "Pattaya": 10076,
      "gỡ": 10077,
      "ustozzi": 10078,
      "Leverkusen": 10079,
      "5K": 10080,
      "Bù": 10081,
      "Egy": 10082,
      "Fish": 10083,
      "Hỏa": 10084,
      "Nar": 10085,
      "Ob": 10086,
      "Tái": 10087,
      "VL": 10088,
      "XX": 10089,
      "Yus": 10090,
      "cẩu": 10091,
      "cậu": 10092,
      "gán": 10093,
      "hẻo": 10094,
      "lẩn": 10095,
      "mỳ": 10096,
      "mỏm": 10097,
      "rent": 10098,
      "rực": 10099,
      "tto": 10100,
      "tét": 10101,
      "xốp": 10102,
      "Đéc": 10103,
      "ấng": 10104,
      "nhái": 10105,
      "chạc": 10106,
      "trớ": 10107,
      "anti": 10108,
      "Thúc": 10109,
      "This": 10110,
      "đáu": 10111,
      "tiể": 10112,
      "Hos": 10113,
      "guồng": 10114,
      "ette": 10115,
      "xét": 10116,
      "Thịt": 10117,
      "bound": 10118,
      "hiro": 10119,
      "260": 10120,
      "Saad": 10121,
      "góc": 10122,
      "voọc": 10123,
      "Josh": 10124,
      "urash": 10125,
      "1978": 10126,
      "Press": 10127,
      "vũ": 10128,
      "Tourist": 10129,
      "statis": 10130,
      "hecta": 10131,
      "Cambridge": 10132,
      "Koh": 10133,
      "Palmer": 10134,
      "NTĐ": 10135,
      "MRI": 10136,
      "bướu": 10137,
      "thoại": 10138,
      "Bull": 10139,
      "Ilkay": 10140,
      "Pinto": 10141,
      "CUP": 10142,
      "tiểu": 10143,
      "?\"": 10144,
      "Ash": 10145,
      "Bồng": 10146,
      "FDA": 10147,
      "Mây": 10148,
      "Sơ": 10149,
      "TĐ": 10150,
      "Tie": 10151,
      "Về": 10152,
      "Xà": 10153,
      "Zer": 10154,
      "bập": 10155,
      "gao": 10156,
      "gắp": 10157,
      "hời": 10158,
      "his": 10159,
      "ies": 10160,
      "sỉ": 10161,
      "sưởi": 10162,
      "Đích": 10163,
      "ƯƠ": 10164,
      "̛̣c": 10165,
      "nhung": 10166,
      "chảnh": 10167,
      "tria": 10168,
      "gin": 10169,
      "ươn": 10170,
      "rata": 10171,
      "esar": 10172,
      "dịp": 10173,
      "Khem": 10174,
      "106": 10175,
      "câ": 10176,
      "row": 10177,
      "Little": 10178,
      "đênh": 10179,
      "mite": 10180,
      "suông": 10181,
      "cky": 10182,
      "Ros": 10183,
      "đáp": 10184,
      "Madeira": 10185,
      "nhoi": 10186,
      "1961": 10187,
      "ween": 10188,
      "thảm": 10189,
      "1987": 10190,
      "Carol": 10191,
      "Abramo": 10192,
      "Nuôi": 10193,
      "ghlight": 10194,
      "Ferdin": 10195,
[...]
